unsigned char small_model_tflite[] = {
  0x1c, 0x00, 0x00, 0x00, 0x54, 0x46, 0x4c, 0x33, 0x14, 0x00, 0x20, 0x00,
  0x1c, 0x00, 0x18, 0x00, 0x14, 0x00, 0x10, 0x00, 0x0c, 0x00, 0x00, 0x00,
  0x08, 0x00, 0x04, 0x00, 0x14, 0x00, 0x00, 0x00, 0x1c, 0x00, 0x00, 0x00,
  0x98, 0x00, 0x00, 0x00, 0x20, 0x01, 0x00, 0x00, 0xb8, 0x76, 0x00, 0x00,
  0xc8, 0x76, 0x00, 0x00, 0xac, 0x85, 0x00, 0x00, 0x03, 0x00, 0x00, 0x00,
  0x01, 0x00, 0x00, 0x00, 0x10, 0x00, 0x00, 0x00, 0x00, 0x00, 0x0a, 0x00,
  0x10, 0x00, 0x0c, 0x00, 0x08, 0x00, 0x04, 0x00, 0x0a, 0x00, 0x00, 0x00,
  0x0c, 0x00, 0x00, 0x00, 0x1c, 0x00, 0x00, 0x00, 0x3c, 0x00, 0x00, 0x00,
  0x0f, 0x00, 0x00, 0x00, 0x73, 0x65, 0x72, 0x76, 0x69, 0x6e, 0x67, 0x5f,
  0x64, 0x65, 0x66, 0x61, 0x75, 0x6c, 0x74, 0x00, 0x01, 0x00, 0x00, 0x00,
  0x04, 0x00, 0x00, 0x00, 0x60, 0xff, 0xff, 0xff, 0x1f, 0x00, 0x00, 0x00,
  0x04, 0x00, 0x00, 0x00, 0x08, 0x00, 0x00, 0x00, 0x6f, 0x75, 0x74, 0x70,
  0x75, 0x74, 0x5f, 0x30, 0x00, 0x00, 0x00, 0x00, 0x01, 0x00, 0x00, 0x00,
  0x04, 0x00, 0x00, 0x00, 0xce, 0x88, 0xff, 0xff, 0x04, 0x00, 0x00, 0x00,
  0x0e, 0x00, 0x00, 0x00, 0x69, 0x6e, 0x70, 0x75, 0x74, 0x5f, 0x6c, 0x61,
  0x79, 0x65, 0x72, 0x5f, 0x31, 0x32, 0x00, 0x00, 0x03, 0x00, 0x00, 0x00,
  0x64, 0x00, 0x00, 0x00, 0x2c, 0x00, 0x00, 0x00, 0x04, 0x00, 0x00, 0x00,
  0xb0, 0xff, 0xff, 0xff, 0x23, 0x00, 0x00, 0x00, 0x04, 0x00, 0x00, 0x00,
  0x13, 0x00, 0x00, 0x00, 0x43, 0x4f, 0x4e, 0x56, 0x45, 0x52, 0x53, 0x49,
  0x4f, 0x4e, 0x5f, 0x4d, 0x45, 0x54, 0x41, 0x44, 0x41, 0x54, 0x41, 0x00,
  0xd4, 0xff, 0xff, 0xff, 0x22, 0x00, 0x00, 0x00, 0x04, 0x00, 0x00, 0x00,
  0x19, 0x00, 0x00, 0x00, 0x72, 0x65, 0x64, 0x75, 0x63, 0x65, 0x64, 0x5f,
  0x70, 0x72, 0x65, 0x63, 0x69, 0x73, 0x69, 0x6f, 0x6e, 0x5f, 0x73, 0x75,
  0x70, 0x70, 0x6f, 0x72, 0x74, 0x00, 0x00, 0x00, 0x08, 0x00, 0x0c, 0x00,
  0x08, 0x00, 0x04, 0x00, 0x08, 0x00, 0x00, 0x00, 0x21, 0x00, 0x00, 0x00,
  0x04, 0x00, 0x00, 0x00, 0x13, 0x00, 0x00, 0x00, 0x6d, 0x69, 0x6e, 0x5f,
  0x72, 0x75, 0x6e, 0x74, 0x69, 0x6d, 0x65, 0x5f, 0x76, 0x65, 0x72, 0x73,
  0x69, 0x6f, 0x6e, 0x00, 0x24, 0x00, 0x00, 0x00, 0x94, 0x75, 0x00, 0x00,
  0x8c, 0x75, 0x00, 0x00, 0xfc, 0x6f, 0x00, 0x00, 0x6c, 0x6f, 0x00, 0x00,
  0x1c, 0x6f, 0x00, 0x00, 0x0c, 0x6e, 0x00, 0x00, 0xbc, 0x6d, 0x00, 0x00,
  0xa8, 0x6d, 0x00, 0x00, 0x98, 0x5d, 0x00, 0x00, 0x88, 0x52, 0x00, 0x00,
  0x78, 0x42, 0x00, 0x00, 0xe8, 0x41, 0x00, 0x00, 0x58, 0x41, 0x00, 0x00,
  0x48, 0x01, 0x00, 0x00, 0x40, 0x01, 0x00, 0x00, 0x38, 0x01, 0x00, 0x00,
  0x30, 0x01, 0x00, 0x00, 0x28, 0x01, 0x00, 0x00, 0x20, 0x01, 0x00, 0x00,
  0x18, 0x01, 0x00, 0x00, 0x10, 0x01, 0x00, 0x00, 0x08, 0x01, 0x00, 0x00,
  0x00, 0x01, 0x00, 0x00, 0xf8, 0x00, 0x00, 0x00, 0xf0, 0x00, 0x00, 0x00,
  0xe8, 0x00, 0x00, 0x00, 0xe0, 0x00, 0x00, 0x00, 0xd8, 0x00, 0x00, 0x00,
  0xd0, 0x00, 0x00, 0x00, 0xc8, 0x00, 0x00, 0x00, 0xc0, 0x00, 0x00, 0x00,
  0xb8, 0x00, 0x00, 0x00, 0xb0, 0x00, 0x00, 0x00, 0x90, 0x00, 0x00, 0x00,
  0x74, 0x00, 0x00, 0x00, 0x04, 0x00, 0x00, 0x00, 0x0a, 0x8a, 0xff, 0xff,
  0x04, 0x00, 0x00, 0x00, 0x60, 0x00, 0x00, 0x00, 0x0c, 0x00, 0x00, 0x00,
  0x08, 0x00, 0x0e, 0x00, 0x08, 0x00, 0x04, 0x00, 0x08, 0x00, 0x00, 0x00,
  0x10, 0x00, 0x00, 0x00, 0x28, 0x00, 0x00, 0x00, 0x00, 0x00, 0x06, 0x00,
  0x08, 0x00, 0x04, 0x00, 0x06, 0x00, 0x00, 0x00, 0x04, 0x00, 0x00, 0x00,
  0x01, 0x00, 0x00, 0x00, 0xe9, 0x03, 0x00, 0x00, 0x0c, 0x00, 0x18, 0x00,
  0x14, 0x00, 0x10, 0x00, 0x0c, 0x00, 0x04, 0x00, 0x0c, 0x00, 0x00, 0x00,
  0xd5, 0x81, 0x2f, 0xc9, 0xc7, 0x76, 0xb8, 0xa5, 0x02, 0x00, 0x00, 0x00,
  0x02, 0x00, 0x00, 0x00, 0x04, 0x00, 0x00, 0x00, 0x06, 0x00, 0x00, 0x00,
  0x32, 0x2e, 0x31, 0x38, 0x2e, 0x30, 0x00, 0x00, 0x76, 0x8a, 0xff, 0xff,
  0x04, 0x00, 0x00, 0x00, 0x0b, 0x00, 0x00, 0x00, 0x66, 0x70, 0x31, 0x36,
  0x61, 0x63, 0x63, 0x66, 0x70, 0x33, 0x32, 0x00, 0x8e, 0x8a, 0xff, 0xff,
  0x04, 0x00, 0x00, 0x00, 0x10, 0x00, 0x00, 0x00, 0x31, 0x2e, 0x31, 0x35,
  0x2e, 0x30, 0x00, 0x00, 0x00, 0x00, 0x00, 0x00, 0x00, 0x00, 0x00, 0x00,
  0xd8, 0x7c, 0xff, 0xff, 0xdc, 0x7c, 0xff, 0xff, 0xe0, 0x7c, 0xff, 0xff,
  0xe4, 0x7c, 0xff, 0xff, 0xe8, 0x7c, 0xff, 0xff, 0xec, 0x7c, 0xff, 0xff,
  0xf0, 0x7c, 0xff, 0xff, 0xf4, 0x7c, 0xff, 0xff, 0xf8, 0x7c, 0xff, 0xff,
  0xfc, 0x7c, 0xff, 0xff, 0x00, 0x7d, 0xff, 0xff, 0x04, 0x7d, 0xff, 0xff,
  0x08, 0x7d, 0xff, 0xff, 0x0c, 0x7d, 0xff, 0xff, 0x10, 0x7d, 0xff, 0xff,
  0x14, 0x7d, 0xff, 0xff, 0x18, 0x7d, 0xff, 0xff, 0x1c, 0x7d, 0xff, 0xff,
  0x20, 0x7d, 0xff, 0xff, 0xf6, 0x8a, 0xff, 0xff, 0x04, 0x00, 0x00, 0x00,
  0x00, 0x40, 0x00, 0x00, 0x40, 0xa7, 0x6b, 0x42, 0x04, 0x40, 0x4c, 0xc6,
  0x3c, 0xcb, 0x08, 0x31, 0x16, 0xc9, 0xa6, 0xb1, 0xdc, 0x2c, 0x39, 0x40,
  0x7a, 0xb9, 0xdb, 0xbd, 0x8a, 0xbe, 0xa5, 0xbf, 0x7a, 0xb7, 0xc8, 0xc1,
  0xc6, 0x2d, 0x64, 0xb0, 0x21, 0x33, 0xf4, 0xbb, 0xec, 0xbc, 0x43, 0xb1,
  0x01, 0xc7, 0xa1, 0x38, 0x72, 0xc1, 0xf2, 0xc2, 0xf5, 0xc4, 0x10, 0x3e,
  0xc2, 0x36, 0xcc, 0xab, 0xf5, 0x35, 0x39, 0xb6, 0x64, 0xc1, 0xdc, 0xb8,
  0x92, 0x38, 0x62, 0xb5, 0x33, 0xab, 0x90, 0x3b, 0x3c, 0xbc, 0x50, 0x23,
  0x3d, 0x34, 0x72, 0xbe, 0x49, 0xbf, 0xbc, 0xb8, 0xe2, 0xc2, 0xba, 0xbb,
  0xba, 0xba, 0x67, 0xb7, 0xf8, 0x36, 0xcc, 0x33, 0xba, 0xb0, 0xa3, 0x36,
  0x0a, 0xc7, 0x55, 0x38, 0x80, 0xbb, 0xa8, 0x39, 0xeb, 0x2c, 0x13, 0x34,
  0x4d, 0xbc, 0x6a, 0x31, 0x0a, 0x33, 0xb6, 0x3e, 0xca, 0x3b, 0x7e, 0xca,
  0x5c, 0xbd, 0xb3, 0x3d, 0x8d, 0x20, 0x38, 0x44, 0x6b, 0xb7, 0x87, 0xb9,
  0x3f, 0x38, 0x5b, 0x33, 0xb5, 0x3c, 0xe0, 0xb5, 0x09, 0xb6, 0x33, 0xaa,
  0x7a, 0x42, 0x42, 0xb1, 0x8e, 0x29, 0x30, 0x44, 0x28, 0xb2, 0xc2, 0x2f,
  0x6c, 0xba, 0x08, 0x32, 0x46, 0x44, 0x28, 0x2d, 0x0a, 0xb4, 0xfc, 0x3a,
  0x49, 0x35, 0x27, 0xb4, 0xde, 0xc1, 0x7e, 0xc6, 0xd0, 0xb6, 0x23, 0x44,
  0x4a, 0xc3, 0xd0, 0xbe, 0x18, 0x39, 0xb4, 0xc9, 0xf8, 0xbd, 0xfb, 0xc2,
  0xce, 0x38, 0x11, 0x38, 0xe2, 0xbb, 0xdc, 0xbf, 0x4f, 0x30, 0xe1, 0xb2,
  0xe8, 0x47, 0x5a, 0xc2, 0x11, 0x2c, 0x11, 0xcd, 0x5d, 0xc2, 0xc1, 0x2e,
  0x06, 0xbc, 0xcf, 0xbe, 0x90, 0xb7, 0x9e, 0xa2, 0x14, 0xbd, 0x14, 0xb2,
  0xf2, 0x31, 0xe4, 0xc4, 0x0d, 0xc8, 0xbc, 0x3b, 0xca, 0x34, 0x36, 0xbb,
  0x94, 0xb5, 0xf3, 0xc5, 0x50, 0xb8, 0x63, 0x34, 0x34, 0xc0, 0xc8, 0x41,
  0xf4, 0x44, 0x2f, 0xce, 0x1b, 0xcd, 0x30, 0xa6, 0x49, 0x35, 0xf4, 0x36,
  0x37, 0xbf, 0x40, 0xbe, 0xeb, 0xbd, 0x8c, 0x3a, 0x22, 0xc4, 0x90, 0xc6,
  0xf2, 0xaa, 0xfb, 0xc7, 0x0b, 0x29, 0xa2, 0x35, 0xd1, 0xbb, 0x87, 0xb7,
  0x97, 0xb1, 0xe4, 0xc4, 0xe5, 0xbc, 0x49, 0xbc, 0x83, 0xb0, 0x11, 0xc4,
  0x71, 0xbc, 0x97, 0x37, 0x8c, 0xac, 0x6d, 0x3a, 0xdd, 0xc5, 0x82, 0xba,
  0x8b, 0xbe, 0xbe, 0xc1, 0x83, 0x31, 0x5b, 0x31, 0x43, 0x30, 0xd9, 0x2c,
  0x8e, 0xbb, 0x9e, 0xc0, 0x51, 0xc3, 0xf5, 0x37, 0x20, 0xc3, 0x22, 0xb6,
  0x22, 0xc5, 0x7b, 0xbc, 0xeb, 0x3f, 0x0c, 0xc2, 0xbc, 0xbe, 0xbf, 0x37,
  0x4f, 0x35, 0x55, 0xb3, 0xee, 0xc8, 0xad, 0xbb, 0x70, 0xc5, 0x22, 0xbd,
  0x05, 0xb7, 0x96, 0xbd, 0xaa, 0x3c, 0xea, 0x32, 0x59, 0x3c, 0xb5, 0xcd,
  0x83, 0xb0, 0xbc, 0xc8, 0xe0, 0x39, 0xd1, 0xc7, 0x0e, 0xc3, 0x03, 0xb8,
  0xe6, 0xb4, 0x96, 0xb8, 0x49, 0xac, 0xbe, 0x3a, 0xa2, 0xb9, 0x61, 0xb3,
  0xa0, 0xaa, 0xf3, 0xb9, 0xcb, 0xca, 0x3c, 0xb6, 0xe1, 0xbd, 0xd2, 0xc3,
  0x9f, 0x3b, 0x61, 0xba, 0xec, 0xb8, 0xa8, 0x38, 0x78, 0xc1, 0x7f, 0xc3,
  0x46, 0xbf, 0x92, 0x3b, 0x4a, 0x31, 0xb4, 0xb7, 0x1f, 0xbc, 0x08, 0xc8,
  0xf6, 0xba, 0xa8, 0xc0, 0x8c, 0xc5, 0x8d, 0xc4, 0x5f, 0xb8, 0xe4, 0xc8,
  0x0d, 0xbe, 0xc1, 0xcb, 0x0b, 0x35, 0xc4, 0xac, 0x9d, 0xb5, 0xc2, 0xc6,
  0x79, 0xbe, 0xe3, 0xba, 0x91, 0x20, 0x3c, 0xc2, 0xcc, 0x2c, 0x40, 0xc5,
  0x7d, 0x3b, 0xe5, 0x3c, 0x7c, 0xc7, 0x3b, 0x44, 0x41, 0x3d, 0x73, 0xb7,
  0xc7, 0x34, 0xa2, 0xb5, 0x0a, 0x3c, 0x3e, 0xc0, 0x1d, 0x40, 0x99, 0xb0,
  0x64, 0x35, 0x2a, 0x40, 0x6f, 0xbb, 0x9e, 0xc0, 0xaa, 0xb7, 0xc9, 0x3c,
  0x57, 0x3d, 0x09, 0xc0, 0x32, 0xbc, 0xcc, 0x47, 0x67, 0xc9, 0xdf, 0x22,
  0x0d, 0x44, 0x87, 0xba, 0x11, 0xba, 0xcf, 0xc1, 0x0c, 0x27, 0xf7, 0xbe,
  0x10, 0x39, 0x68, 0x42, 0x62, 0xc5, 0xba, 0xc4, 0x24, 0xb9, 0xd9, 0x34,
  0xd2, 0xc2, 0x1e, 0xbf, 0xbe, 0x33, 0x2d, 0x3d, 0x85, 0xbb, 0x13, 0x39,
  0xa7, 0x39, 0xe9, 0xbf, 0xb4, 0xbb, 0x66, 0xc4, 0xc1, 0x2f, 0x9b, 0xb8,
  0x4a, 0xbb, 0x8b, 0xb1, 0xcd, 0xb8, 0x4b, 0xbc, 0x1c, 0x29, 0x1a, 0x3d,
  0x49, 0xb5, 0x60, 0xb4, 0x14, 0xc2, 0xc5, 0x33, 0xce, 0xbf, 0xed, 0x41,
  0x19, 0xc3, 0x1a, 0xc7, 0x1f, 0x3a, 0x4d, 0xba, 0xfe, 0x41, 0xad, 0xbf,
  0x78, 0xc3, 0x52, 0xb0, 0x5f, 0x3c, 0x67, 0x20, 0x00, 0xbf, 0xc5, 0xb9,
  0x49, 0xbe, 0xbe, 0x33, 0x30, 0x29, 0x3a, 0xc1, 0xe1, 0xba, 0x21, 0xae,
  0x1f, 0xc4, 0x0a, 0xc1, 0x40, 0xb8, 0x21, 0xca, 0x20, 0xba, 0x27, 0xc3,
  0x3d, 0xb2, 0x33, 0x3f, 0x8c, 0x34, 0xf9, 0xb7, 0x71, 0xb5, 0x69, 0x3f,
  0x57, 0x3b, 0x72, 0x2d, 0xc7, 0x37, 0xad, 0xae, 0x33, 0x40, 0x20, 0xaf,
  0xa4, 0x3b, 0xe1, 0xc6, 0x5c, 0x33, 0x6d, 0x2b, 0x8c, 0xbb, 0xc8, 0x31,
  0x81, 0x3a, 0x60, 0xcb, 0x54, 0xbc, 0x98, 0x37, 0x58, 0xb9, 0x98, 0xb8,
  0x62, 0xc7, 0x99, 0xc8, 0x4d, 0xb1, 0x6f, 0xc4, 0xcc, 0xbb, 0x2c, 0x3d,
  0x2c, 0xaf, 0x6e, 0x3d, 0x28, 0xbd, 0xd9, 0xc7, 0x99, 0x40, 0x9f, 0x39,
  0xbd, 0xbf, 0x16, 0xbf, 0xbf, 0xc0, 0x24, 0x36, 0xdb, 0xc3, 0x0b, 0x38,
  0xc9, 0xb7, 0x10, 0x48, 0x90, 0xb8, 0x91, 0x34, 0xeb, 0xc5, 0xdd, 0xc0,
  0xd7, 0xc2, 0x28, 0xab, 0x8b, 0xb8, 0xef, 0x36, 0xa5, 0x2a, 0x7a, 0x38,
  0xba, 0x3a, 0xba, 0x2f, 0x0a, 0x3a, 0xea, 0xc8, 0x80, 0x39, 0xac, 0xb9,
  0x85, 0xb6, 0x1a, 0x33, 0x1c, 0xc4, 0xe4, 0x40, 0x1a, 0xb8, 0x5b, 0xc5,
  0x92, 0x32, 0xa4, 0x33, 0x7f, 0xc7, 0x62, 0xb8, 0x9f, 0xa4, 0x35, 0x38,
  0xa1, 0x32, 0xfe, 0x3b, 0x21, 0xb7, 0x91, 0x46, 0x3e, 0xc3, 0x67, 0xc8,
  0x81, 0x37, 0x32, 0xb8, 0xde, 0xc5, 0x72, 0xb8, 0xeb, 0xb6, 0x2a, 0xc1,
  0x23, 0x33, 0x3a, 0x25, 0xd0, 0xb9, 0x17, 0xc1, 0x62, 0xb0, 0x69, 0x3c,
  0x7c, 0xc0, 0x3b, 0xb0, 0xee, 0xc2, 0x62, 0x2f, 0x89, 0x21, 0xb0, 0x3b,
  0x75, 0xb9, 0x25, 0xc3, 0x2d, 0xb4, 0xe5, 0x34, 0xec, 0x35, 0x52, 0xb7,
  0x5d, 0x40, 0xc6, 0x3c, 0xfb, 0xc1, 0x77, 0x3a, 0xc5, 0x34, 0xf3, 0x34,
  0xaa, 0x3d, 0xc9, 0xb5, 0x71, 0x2a, 0x65, 0x30, 0x0d, 0xb6, 0x93, 0xb0,
  0x2d, 0xb8, 0xf2, 0x36, 0x47, 0x38, 0xd2, 0x38, 0xf5, 0xba, 0xa8, 0xbd,
  0x4b, 0xc2, 0xdf, 0xb9, 0x88, 0xc4, 0xd1, 0xba, 0x0e, 0x39, 0xc4, 0x3d,
  0x6e, 0x3a, 0x08, 0x40, 0x95, 0x39, 0xb8, 0x42, 0x7a, 0xb8, 0x60, 0xbc,
  0xac, 0xc0, 0x42, 0xb3, 0xb3, 0x41, 0x4f, 0xb0, 0x4e, 0x3d, 0x40, 0xaf,
  0x7f, 0xc9, 0xf9, 0x2f, 0x30, 0xc4, 0x82, 0x3d, 0xa6, 0xb6, 0xa3, 0xb6,
  0x47, 0xb7, 0xc0, 0xb8, 0x2e, 0xb7, 0xa7, 0x41, 0x9d, 0xbc, 0x3c, 0xb0,
  0x35, 0x32, 0x99, 0xb1, 0xec, 0x38, 0x66, 0x2f, 0x2b, 0xc4, 0x97, 0x43,
  0x86, 0xc6, 0xb1, 0xc1, 0x6f, 0xc1, 0x66, 0x41, 0xb2, 0xb8, 0xa9, 0xc9,
  0x55, 0x38, 0x51, 0xb8, 0x03, 0xc2, 0x5d, 0xc5, 0x50, 0x39, 0xac, 0x32,
  0xf3, 0xc7, 0x8d, 0x33, 0xef, 0xbc, 0x48, 0xc4, 0xf6, 0xc0, 0x57, 0xb3,
  0x42, 0x38, 0xcf, 0x43, 0x5e, 0x39, 0x8d, 0x2f, 0x7b, 0xbd, 0xc0, 0xb5,
  0x7b, 0x34, 0x79, 0x3a, 0xf5, 0xb5, 0x87, 0x38, 0x0c, 0xb5, 0x0e, 0x44,
  0x25, 0xa3, 0x6e, 0x33, 0x21, 0xb8, 0x34, 0xb9, 0x4c, 0xc0, 0x23, 0xc5,
  0x7d, 0xc4, 0xf7, 0xb8, 0x0f, 0x3e, 0x55, 0x33, 0x61, 0xb6, 0x65, 0xb1,
  0xbf, 0xc1, 0xcc, 0x34, 0x7f, 0xc7, 0xa8, 0xbe, 0x3b, 0xc2, 0xac, 0xc4,
  0x11, 0x3e, 0xf9, 0xc8, 0x90, 0x2f, 0xe2, 0x3a, 0x78, 0xc0, 0xed, 0xb8,
  0xdc, 0xb7, 0xce, 0xbf, 0xf9, 0xb5, 0x15, 0xba, 0x21, 0x3b, 0x71, 0xc8,
  0xab, 0x34, 0x1c, 0x3d, 0xfe, 0xb5, 0xf2, 0x3d, 0x52, 0xc0, 0x28, 0xad,
  0x5a, 0x39, 0x18, 0xb4, 0xe3, 0xbc, 0x48, 0xa9, 0x59, 0x35, 0xc3, 0x40,
  0x8e, 0x3c, 0x83, 0xc0, 0xcb, 0xc0, 0xff, 0xbf, 0x3c, 0xb7, 0x21, 0xad,
  0x0f, 0xc1, 0x6d, 0xc1, 0xdf, 0x48, 0x0a, 0x38, 0x9c, 0xc2, 0x00, 0xb5,
  0x3b, 0x41, 0x0b, 0xbb, 0x6a, 0xc6, 0xcf, 0xb6, 0x6c, 0x38, 0xa2, 0x2c,
  0x03, 0x38, 0x71, 0x3c, 0x0d, 0xb3, 0x28, 0x39, 0x07, 0xc4, 0xb8, 0xb7,
  0xb0, 0xb4, 0x4b, 0xc4, 0x3a, 0xbd, 0xc3, 0x40, 0x35, 0xbf, 0xb0, 0xc8,
  0x08, 0x3c, 0x22, 0xbd, 0x56, 0xb6, 0xee, 0xb7, 0x86, 0x40, 0xd8, 0x26,
  0x02, 0x39, 0xe7, 0x37, 0x9c, 0xc8, 0xa6, 0x38, 0x1c, 0xc1, 0x71, 0x40,
  0x0d, 0xb5, 0xa2, 0xb7, 0x7e, 0xbb, 0xcf, 0xbd, 0xdd, 0x3f, 0x07, 0x43,
  0x74, 0x35, 0xe7, 0xb3, 0x23, 0xbc, 0x05, 0x38, 0x9a, 0x37, 0x50, 0x39,
  0x50, 0xbb, 0x80, 0xc0, 0x7c, 0xbc, 0xab, 0xbb, 0x95, 0xa6, 0x0d, 0xc8,
  0xe3, 0xbc, 0xe0, 0xc1, 0xeb, 0x2a, 0x6a, 0xb3, 0xfa, 0xbb, 0x1a, 0x48,
  0x34, 0x28, 0x08, 0xab, 0x03, 0xcc, 0xd5, 0xae, 0x7a, 0x39, 0x5e, 0xcb,
  0x08, 0xba, 0x9d, 0x3d, 0x90, 0x42, 0x62, 0x41, 0x05, 0x3c, 0x3f, 0xbb,
  0xe6, 0x3a, 0x4a, 0xb5, 0x09, 0xba, 0xbf, 0x41, 0xf3, 0x44, 0xd7, 0xbd,
  0x45, 0xbc, 0xa6, 0x46, 0xaa, 0xc0, 0x1d, 0x31, 0x3e, 0xb9, 0x51, 0x3c,
  0x5b, 0x3c, 0x3b, 0x46, 0x24, 0x41, 0xc3, 0x45, 0xf8, 0x2b, 0xc2, 0x31,
  0x22, 0xc4, 0xd9, 0x35, 0x34, 0x41, 0xc7, 0xbc, 0xed, 0x3c, 0xa7, 0xc0,
  0x4c, 0x40, 0x85, 0xc9, 0xce, 0x3e, 0xe0, 0xcc, 0x4e, 0x39, 0x21, 0x31,
  0x0d, 0xbb, 0x1a, 0xc5, 0x5c, 0x38, 0x1c, 0xc1, 0x07, 0xaa, 0x5e, 0x34,
  0x19, 0x38, 0xba, 0xbc, 0x02, 0x35, 0x34, 0xc4, 0xdc, 0xb9, 0xe2, 0x35,
  0x72, 0xbb, 0xf6, 0xab, 0x0d, 0x35, 0xcf, 0x25, 0xf6, 0x32, 0x17, 0xb9,
  0xd4, 0xbb, 0x3b, 0xc1, 0x3e, 0xbc, 0xcb, 0x3d, 0xcd, 0x3d, 0x29, 0xc0,
  0x92, 0x3b, 0x47, 0x3e, 0xa9, 0xae, 0x04, 0x3b, 0x66, 0xc6, 0x8a, 0xc4,
  0xb0, 0x28, 0x64, 0x37, 0x04, 0xc2, 0x40, 0xc0, 0x54, 0xc7, 0x0c, 0x39,
  0xa0, 0xb9, 0xe0, 0x39, 0x2f, 0xb2, 0x9a, 0xbf, 0x8f, 0xc4, 0xd1, 0xbe,
  0xc0, 0x3a, 0x69, 0xb8, 0x94, 0x38, 0xfc, 0x37, 0x18, 0xb0, 0x05, 0xc8,
  0x8e, 0xb9, 0xc7, 0xb3, 0x16, 0xb8, 0x1b, 0xba, 0xca, 0xbc, 0x85, 0x3b,
  0x20, 0xc2, 0xd4, 0x30, 0x10, 0xbd, 0xf2, 0xb1, 0xcc, 0xb6, 0xe5, 0xb8,
  0x07, 0x3d, 0x44, 0xc4, 0xb0, 0xb6, 0xc9, 0xb4, 0xd7, 0xbd, 0x4a, 0x34,
  0x3c, 0xc0, 0x41, 0x35, 0x83, 0xb9, 0x3a, 0xb7, 0x4d, 0xc0, 0x0e, 0xbc,
  0xc2, 0x42, 0xd5, 0x3f, 0x3c, 0xbb, 0x8d, 0xbc, 0x4e, 0x42, 0x3a, 0xb8,
  0xf8, 0xb7, 0xbc, 0xc8, 0x28, 0x32, 0x3e, 0x35, 0x93, 0x3c, 0x16, 0xb8,
  0xce, 0xbd, 0x9a, 0xc4, 0x98, 0x3d, 0x65, 0xac, 0x22, 0x41, 0x20, 0x38,
  0xec, 0x99, 0x63, 0xc9, 0x58, 0xb5, 0x55, 0xb3, 0x14, 0x28, 0x35, 0xb5,
  0xf8, 0x3b, 0x56, 0x32, 0x26, 0xbe, 0x5f, 0x34, 0x5d, 0xbf, 0xa8, 0xb0,
  0xb9, 0xc8, 0x0c, 0xb9, 0x94, 0x29, 0xb0, 0x3e, 0xe2, 0xb0, 0xa7, 0x34,
  0xf1, 0x30, 0xa0, 0xbf, 0x80, 0x3e, 0xb1, 0xc5, 0xa1, 0x4a, 0xb0, 0x4a,
  0x9e, 0x46, 0x05, 0xb8, 0x21, 0x45, 0x28, 0xbc, 0x97, 0x3c, 0x5e, 0xc0,
  0x48, 0x3c, 0x29, 0xb8, 0x06, 0x39, 0x85, 0xc3, 0x19, 0x38, 0x3d, 0x4c,
  0xf8, 0xb8, 0x92, 0xae, 0xd7, 0xc5, 0x7f, 0x3e, 0x94, 0x38, 0xe4, 0xc1,
  0xb7, 0x3b, 0xad, 0x34, 0x20, 0x41, 0x42, 0xc4, 0xb2, 0x3a, 0x97, 0x3b,
  0x76, 0xab, 0x4c, 0x3b, 0x59, 0x31, 0xda, 0xb8, 0xcb, 0x36, 0x3a, 0x3d,
  0x2e, 0xb2, 0xd2, 0xba, 0x43, 0x3c, 0xe0, 0xb8, 0x39, 0xc1, 0xbf, 0x37,
  0x6d, 0x41, 0x0b, 0xc1, 0xeb, 0xb5, 0x74, 0x3e, 0x6f, 0x39, 0xb4, 0x41,
  0x3f, 0x40, 0x9d, 0xa6, 0xcd, 0x47, 0x8d, 0xb8, 0xb1, 0xb8, 0x3f, 0xb8,
  0x38, 0x45, 0xe9, 0xbe, 0x82, 0xb9, 0x26, 0xbb, 0x90, 0xb0, 0xb0, 0xbd,
  0xfd, 0x44, 0x23, 0xb5, 0x8e, 0x3c, 0x3b, 0xc4, 0x7a, 0xb5, 0x9e, 0x43,
  0x3f, 0x3f, 0xfc, 0x34, 0x75, 0x31, 0x3a, 0x42, 0x55, 0xb9, 0xb3, 0xc3,
  0x04, 0xb7, 0xbf, 0xbc, 0x55, 0xbd, 0x40, 0xb6, 0xb2, 0xb6, 0x37, 0xbf,
  0x63, 0xc5, 0xc5, 0xab, 0x6b, 0x38, 0x24, 0x47, 0x67, 0x31, 0x6d, 0x38,
  0x32, 0xc7, 0xf4, 0xb9, 0xfb, 0x32, 0x58, 0x43, 0xb9, 0xb3, 0xcc, 0x3c,
  0x84, 0xbb, 0xe5, 0xb2, 0x93, 0xae, 0xdb, 0x3c, 0xc9, 0xc0, 0x26, 0xb9,
  0x09, 0x3d, 0xe9, 0xbb, 0xa0, 0x39, 0x66, 0xc8, 0x5f, 0x3c, 0xef, 0x42,
  0x2e, 0x2e, 0x8d, 0xb9, 0x34, 0xab, 0x1d, 0x44, 0xbc, 0xb5, 0xe3, 0x33,
  0xa7, 0x4a, 0xf1, 0x39, 0x43, 0xb3, 0x13, 0xcc, 0x0b, 0x34, 0x2e, 0xab,
  0xb8, 0x3e, 0x6f, 0x32, 0x12, 0x40, 0x4c, 0x22, 0xd0, 0x3d, 0x67, 0xb9,
  0x22, 0xba, 0x6a, 0x41, 0x50, 0x23, 0xe4, 0xb7, 0x5a, 0xc1, 0x7d, 0xbd,
  0x93, 0x38, 0x2e, 0x35, 0x6d, 0xbb, 0x61, 0x34, 0x6b, 0x34, 0x62, 0x46,
  0xf4, 0x3b, 0x65, 0xd0, 0x89, 0x40, 0x8d, 0xb9, 0x06, 0x41, 0x36, 0xb6,
  0xb7, 0xbc, 0xed, 0xbd, 0xfc, 0xb0, 0x17, 0xc5, 0x9b, 0x41, 0x4c, 0x39,
  0x89, 0x40, 0x58, 0xc8, 0xd6, 0xbd, 0x93, 0xb7, 0x22, 0x40, 0x9d, 0xc2,
  0x80, 0xb3, 0x64, 0xb4, 0x45, 0x3d, 0x5a, 0x38, 0xf5, 0x3d, 0xe2, 0x3f,
  0x95, 0x38, 0xfe, 0xbd, 0x27, 0x35, 0x16, 0xc1, 0x13, 0x39, 0x9c, 0xbc,
  0x0b, 0x3c, 0x29, 0xc5, 0x96, 0x28, 0x05, 0xc1, 0xc9, 0x32, 0x95, 0x38,
  0xee, 0xc1, 0x67, 0xc3, 0x64, 0xbe, 0x8f, 0xc0, 0x2b, 0xb5, 0xa7, 0xb5,
  0xc7, 0xbf, 0x55, 0xbd, 0xef, 0xc0, 0x49, 0x3a, 0x23, 0xc6, 0x2c, 0xb6,
  0x44, 0xb9, 0xa3, 0x3d, 0x43, 0xc6, 0x40, 0xc1, 0x95, 0xc0, 0xe6, 0xb4,
  0xb3, 0xb9, 0x01, 0xbf, 0xb3, 0x3f, 0xeb, 0xb5, 0x5c, 0x35, 0x79, 0x43,
  0x59, 0xb5, 0x6f, 0xbc, 0xe3, 0xbe, 0xf1, 0x33, 0x5b, 0xb6, 0x2b, 0x3b,
  0xc0, 0xb3, 0xa1, 0x38, 0x6d, 0xbb, 0x9a, 0x40, 0x95, 0x36, 0x43, 0xb1,
  0x02, 0xc6, 0xe4, 0xbe, 0x4a, 0xc8, 0x9d, 0x34, 0xa0, 0xbb, 0x5d, 0x42,
  0xed, 0xb8, 0xa7, 0x31, 0xe8, 0xbf, 0xa9, 0x31, 0xd9, 0x37, 0xeb, 0xb6,
  0x2c, 0x39, 0xeb, 0xbc, 0xd4, 0x2f, 0xc0, 0xa6, 0xc2, 0xb9, 0x1d, 0xbe,
  0x03, 0xb4, 0x2e, 0x3b, 0x2f, 0x47, 0x42, 0x3e, 0x28, 0x38, 0xfd, 0xc4,
  0x05, 0xba, 0x35, 0x3b, 0x88, 0x3f, 0x68, 0xb8, 0xff, 0x3a, 0x93, 0x32,
  0x47, 0xbb, 0x0a, 0x32, 0x8e, 0xcb, 0x6c, 0xc0, 0x09, 0x31, 0x0e, 0xca,
  0x8c, 0x31, 0xd6, 0xb2, 0xad, 0xbe, 0xbf, 0x3c, 0x27, 0xb9, 0x9d, 0x37,
  0x02, 0x3d, 0x91, 0xba, 0x68, 0xba, 0xa8, 0x3e, 0x68, 0xc7, 0x99, 0xb6,
  0xbe, 0x2c, 0xa6, 0xc4, 0xe7, 0x3a, 0xf6, 0xa4, 0x3d, 0xb7, 0x3c, 0xbe,
  0x51, 0xb9, 0x20, 0xc0, 0x38, 0x42, 0x4e, 0xc8, 0xde, 0xc0, 0x45, 0xbe,
  0x31, 0xc8, 0x9d, 0xb7, 0x11, 0xbb, 0x35, 0x2c, 0x07, 0xbd, 0x72, 0x38,
  0xd1, 0x3e, 0x36, 0xb2, 0x36, 0xc5, 0x27, 0x4b, 0x74, 0x27, 0x97, 0x1e,
  0xf1, 0xc4, 0x7d, 0x3b, 0x66, 0x2f, 0xd8, 0xbc, 0x17, 0xc1, 0xd0, 0x30,
  0xe7, 0xc2, 0xb6, 0xc0, 0x4d, 0xb9, 0xac, 0xb3, 0x9f, 0xbc, 0x0e, 0xb2,
  0xb3, 0xba, 0xbb, 0x1b, 0x60, 0xc1, 0xc2, 0x3b, 0x94, 0x1c, 0xd0, 0xb6,
  0xcb, 0x34, 0x84, 0x38, 0x25, 0xba, 0xac, 0xc2, 0xf2, 0x25, 0x22, 0x40,
  0x6f, 0xbb, 0x2e, 0x3c, 0x96, 0xbf, 0xd0, 0xb6, 0xf4, 0x29, 0xd8, 0x3c,
  0x72, 0x35, 0x87, 0x2e, 0x8c, 0xbb, 0x74, 0x30, 0x5d, 0xb7, 0x10, 0xb6,
  0x6b, 0x40, 0xd5, 0x3c, 0x73, 0x3d, 0x13, 0xc4, 0xc2, 0xbb, 0x89, 0x28,
  0x79, 0x39, 0xb6, 0xc0, 0x90, 0xb9, 0xc0, 0xc5, 0x21, 0xb1, 0xf8, 0x3c,
  0xf1, 0xbb, 0xb3, 0x44, 0x8c, 0xc5, 0xc7, 0xb8, 0x18, 0x36, 0xcb, 0xb6,
  0x18, 0x3a, 0xca, 0xb6, 0x8f, 0xbc, 0xb3, 0xb8, 0xd4, 0xca, 0xed, 0xc0,
  0x86, 0x3a, 0x3c, 0xc2, 0xd5, 0x3b, 0x8b, 0xb6, 0xdf, 0x33, 0xd9, 0x32,
  0x67, 0xb8, 0xe6, 0xba, 0x16, 0x39, 0x85, 0x3c, 0xd0, 0xb6, 0xd1, 0xc3,
  0x0a, 0x40, 0x7a, 0x3f, 0xcf, 0xb8, 0x5e, 0xc5, 0x41, 0xc7, 0xb8, 0x35,
  0xb0, 0x38, 0x88, 0xca, 0x0c, 0x3a, 0x9f, 0x3f, 0xd3, 0x39, 0x5b, 0xa8,
  0x16, 0x40, 0x4a, 0xc9, 0xa0, 0xb8, 0x39, 0xc0, 0x21, 0xd0, 0xce, 0xbc,
  0xa0, 0xc8, 0x99, 0x37, 0xf1, 0x3a, 0x8c, 0x37, 0x08, 0x3e, 0x61, 0x38,
  0xe8, 0x3d, 0x4e, 0xb1, 0xd4, 0xc5, 0x85, 0x38, 0x1f, 0x30, 0xa7, 0x43,
  0x5d, 0xc4, 0x53, 0xc2, 0x16, 0x3e, 0x64, 0xbf, 0xc7, 0xb5, 0x66, 0x3a,
  0x4c, 0xb4, 0xde, 0xbb, 0xbe, 0xb4, 0x1e, 0x34, 0x08, 0x45, 0x01, 0x44,
  0x82, 0xc8, 0xa1, 0x34, 0xb3, 0x3d, 0x3a, 0xbd, 0x93, 0x34, 0xc1, 0xc1,
  0xa7, 0x39, 0xc7, 0x3f, 0xde, 0xb0, 0x70, 0x3e, 0x6b, 0xc2, 0x79, 0x44,
  0x94, 0xbd, 0xbe, 0xb9, 0x22, 0xc3, 0x65, 0xbb, 0x5c, 0xb4, 0x6b, 0x3e,
  0xfd, 0x36, 0x4c, 0xb0, 0xc4, 0xbb, 0x83, 0x3b, 0x8e, 0x38, 0xc2, 0xbd,
  0x72, 0x35, 0x7c, 0x39, 0x05, 0x40, 0xfb, 0xb7, 0x98, 0xac, 0xe6, 0xc4,
  0xeb, 0x30, 0xd5, 0x38, 0xbf, 0x39, 0xd8, 0x3f, 0xd2, 0x38, 0x52, 0xb0,
  0xa6, 0x34, 0x8a, 0x3b, 0x08, 0xab, 0x33, 0xb1, 0x8c, 0x38, 0x01, 0x3a,
  0x8e, 0x41, 0x34, 0xb6, 0x96, 0xcd, 0x98, 0xad, 0x2f, 0x3b, 0xaa, 0x38,
  0x10, 0x45, 0x49, 0xbd, 0x06, 0xc7, 0xed, 0xbd, 0x58, 0xc2, 0xb8, 0xb9,
  0x40, 0xc3, 0xff, 0x24, 0x83, 0xc4, 0x22, 0xc2, 0xcb, 0x2e, 0xdf, 0xc6,
  0xb8, 0x3c, 0x27, 0x32, 0x4a, 0xb3, 0x9f, 0x3e, 0x7f, 0xb5, 0x24, 0xb0,
  0xb5, 0x3c, 0x8e, 0xc7, 0x6e, 0x39, 0x19, 0x35, 0xc2, 0xae, 0x6f, 0x38,
  0xa9, 0x45, 0x05, 0xb3, 0x65, 0xb4, 0x80, 0xc3, 0x75, 0x38, 0x88, 0x38,
  0x52, 0x39, 0xfd, 0x34, 0x26, 0xcb, 0xf2, 0xc1, 0xb8, 0xb6, 0xca, 0x3e,
  0xf9, 0x30, 0xce, 0x36, 0x45, 0xbc, 0x81, 0xc9, 0xd3, 0x38, 0x0a, 0xba,
  0x54, 0xbb, 0x3c, 0x2f, 0x98, 0xc2, 0xc2, 0xbe, 0xc4, 0x37, 0x12, 0xc6,
  0x40, 0xbc, 0xdb, 0x3a, 0xe1, 0xc2, 0x7f, 0x40, 0xaa, 0xa3, 0x43, 0x39,
  0xad, 0xc3, 0x19, 0xbe, 0x8e, 0xbc, 0x3b, 0x4b, 0x99, 0xbe, 0x42, 0xb6,
  0x43, 0xba, 0x67, 0x3c, 0xad, 0x3e, 0x51, 0x35, 0x52, 0xc1, 0x36, 0x37,
  0x21, 0x3c, 0x1c, 0xbb, 0x48, 0xc3, 0x1b, 0x34, 0x8b, 0xbd, 0x46, 0xc0,
  0xd7, 0x35, 0x19, 0x3c, 0xf1, 0xb4, 0xce, 0x38, 0x44, 0x3e, 0x04, 0xc6,
  0xe1, 0x4b, 0x95, 0xcb, 0x7a, 0xbf, 0x3d, 0xbd, 0x30, 0xc1, 0x6d, 0xba,
  0x87, 0xb9, 0xa6, 0xbb, 0xde, 0xb4, 0x59, 0x41, 0xda, 0x3e, 0x4f, 0xcc,
  0x8d, 0x2b, 0x07, 0xcf, 0x37, 0xbc, 0x49, 0x37, 0x9d, 0xc4, 0x9c, 0xc4,
  0x31, 0x21, 0x8b, 0xbd, 0x2f, 0xc2, 0xc0, 0x37, 0x7e, 0x34, 0x8e, 0xc3,
  0xfa, 0xbc, 0x57, 0xbd, 0x46, 0xbf, 0xa2, 0xbb, 0x05, 0xae, 0x1b, 0xbb,
  0x0d, 0xba, 0x44, 0xb4, 0x92, 0x2c, 0x7d, 0xc1, 0x04, 0x38, 0xba, 0xb4,
  0x76, 0xc2, 0xb6, 0x35, 0x3f, 0xc7, 0x2e, 0xc0, 0x2b, 0xc4, 0x72, 0xbc,
  0x14, 0xb9, 0x86, 0xc0, 0xaf, 0xc1, 0x43, 0xb7, 0xaa, 0x16, 0x7c, 0x3c,
  0xa7, 0xa4, 0x09, 0x3e, 0x53, 0xc8, 0x10, 0xc1, 0x2b, 0x40, 0x2e, 0xc0,
  0xb0, 0x3b, 0xae, 0xc1, 0x54, 0xbd, 0xc8, 0xb6, 0xdd, 0x41, 0xb6, 0xcb,
  0x8a, 0xbc, 0x5a, 0x40, 0x9b, 0x3e, 0xf7, 0xc1, 0x66, 0x3d, 0xaf, 0x45,
  0xad, 0xb4, 0xc8, 0xba, 0xb3, 0xb6, 0x5d, 0xbd, 0x8c, 0xc2, 0xe4, 0xa9,
  0x26, 0xc0, 0x5a, 0xbf, 0x88, 0x4a, 0x16, 0xb9, 0x01, 0xa9, 0xe0, 0xb6,
  0xa4, 0xc5, 0x7c, 0xba, 0xc2, 0xbf, 0x5b, 0xbc, 0x0b, 0x40, 0x93, 0xc0,
  0xe1, 0x31, 0x83, 0x3e, 0x95, 0xb8, 0xa7, 0xbc, 0x9b, 0xb9, 0xac, 0x42,
  0x15, 0xb8, 0x3e, 0x35, 0x27, 0x49, 0xf0, 0xb7, 0x4c, 0x3c, 0x37, 0xd0,
  0x25, 0xbf, 0xe0, 0xc4, 0x12, 0x40, 0x6d, 0xbb, 0x5b, 0xb5, 0x46, 0x3b,
  0xb3, 0xb8, 0xac, 0xb5, 0xc5, 0x47, 0x30, 0xbf, 0x63, 0x38, 0x53, 0xc7,
  0xa8, 0x40, 0xc8, 0x38, 0x60, 0xac, 0x22, 0x40, 0xff, 0xb6, 0x06, 0xbb,
  0x4c, 0xc4, 0x3f, 0xb5, 0x46, 0xbe, 0x1f, 0xbf, 0x66, 0xbf, 0x00, 0xb3,
  0x4e, 0x40, 0x50, 0xb5, 0xbc, 0x37, 0x44, 0xbc, 0x4b, 0x31, 0x94, 0xb8,
  0xa5, 0x9f, 0xfb, 0x39, 0x5a, 0xaf, 0x5d, 0x48, 0x2d, 0xca, 0x16, 0x31,
  0x46, 0xc0, 0x15, 0xbd, 0xbe, 0xc0, 0x52, 0xb6, 0x16, 0xbc, 0x4c, 0xc9,
  0x32, 0xc3, 0xa6, 0xc0, 0x4a, 0xc3, 0x6c, 0x4c, 0x18, 0xb0, 0xed, 0xb9,
  0xbe, 0x3b, 0x9d, 0xc3, 0x31, 0xba, 0x3b, 0xbb, 0x8d, 0x29, 0x28, 0xb1,
  0xfb, 0xbf, 0x22, 0xc2, 0x20, 0xb8, 0xda, 0x3e, 0xc3, 0xb5, 0x2c, 0x30,
  0x41, 0xc0, 0x63, 0xb6, 0x52, 0xac, 0xef, 0xc5, 0xeb, 0xba, 0xaa, 0xbf,
  0xac, 0x20, 0x55, 0xbd, 0x13, 0xb4, 0xc7, 0xbf, 0xc3, 0x3d, 0x57, 0x39,
  0x6e, 0xc4, 0x8c, 0x34, 0xad, 0xbf, 0x93, 0xa0, 0x99, 0xc5, 0x8b, 0xbd,
  0xa0, 0x41, 0x7f, 0xb1, 0xab, 0xbd, 0xc2, 0xc4, 0xa7, 0xc4, 0xcb, 0x30,
  0x76, 0xc1, 0x1b, 0x3b, 0x3d, 0xbb, 0x1c, 0x38, 0x1b, 0x3d, 0x07, 0xb5,
  0xec, 0x40, 0x2e, 0x3d, 0xde, 0x37, 0x5a, 0xca, 0xf9, 0xb2, 0xbd, 0xc0,
  0xd9, 0xbc, 0x8e, 0xbe, 0xb2, 0xb6, 0xab, 0xa9, 0xda, 0x3b, 0x1b, 0xb9,
  0xec, 0xb8, 0xef, 0x28, 0xb5, 0xb6, 0x63, 0x38, 0x1a, 0xc8, 0xff, 0x30,
  0xdd, 0xc0, 0x64, 0xc2, 0x62, 0xb6, 0x40, 0xbc, 0x49, 0xbd, 0xdb, 0xb4,
  0xc0, 0x30, 0x3d, 0xc6, 0x83, 0x28, 0xb7, 0x42, 0xfc, 0x33, 0x4e, 0xb3,
  0x09, 0xb5, 0x0e, 0xc8, 0xc3, 0xb6, 0x1a, 0xc2, 0xd7, 0xc6, 0x90, 0xb7,
  0x11, 0x3d, 0x12, 0x42, 0x59, 0xb8, 0xe1, 0xc0, 0x4b, 0xc0, 0xdc, 0x34,
  0x11, 0x3c, 0x83, 0x44, 0x3c, 0xb7, 0xa4, 0xc7, 0x2a, 0xc8, 0x8f, 0xc4,
  0xaa, 0xbd, 0x36, 0xca, 0x12, 0xb4, 0x8c, 0xbb, 0x9d, 0xbd, 0xdf, 0x38,
  0x09, 0x27, 0x20, 0xb9, 0x87, 0x33, 0xa4, 0xb0, 0xe6, 0xb7, 0x99, 0xc1,
  0xbb, 0xc5, 0x4c, 0xc2, 0xb8, 0xb9, 0x64, 0xc6, 0x06, 0x34, 0x23, 0xba,
  0x02, 0xb9, 0xc9, 0xbe, 0x99, 0x2c, 0xd0, 0xbe, 0x3c, 0xcb, 0xa5, 0xc2,
  0x3b, 0xc0, 0x29, 0xa6, 0x31, 0x34, 0x22, 0x33, 0x50, 0xae, 0x00, 0x39,
  0x4a, 0x39, 0x21, 0xb7, 0x45, 0xc9, 0xba, 0x3d, 0x09, 0xad, 0xc8, 0xca,
  0x03, 0x35, 0x7d, 0x30, 0xec, 0xa7, 0x6b, 0x40, 0xd9, 0xba, 0x8c, 0x3c,
  0x5e, 0x1d, 0x29, 0xb8, 0x1b, 0x2b, 0x9c, 0xc1, 0x13, 0xb0, 0x54, 0x39,
  0x6c, 0xba, 0x14, 0x2d, 0xaa, 0xc1, 0x77, 0x31, 0x58, 0xb8, 0x16, 0xbc,
  0x4a, 0x2f, 0xe5, 0x32, 0x08, 0x2a, 0x9b, 0x35, 0xc2, 0xb6, 0x80, 0xbd,
  0xb5, 0xc1, 0xb8, 0x3b, 0xc5, 0xbc, 0xd8, 0xc2, 0x4c, 0x39, 0x07, 0xb8,
  0x64, 0x46, 0x7a, 0xbc, 0x83, 0xcb, 0xab, 0x36, 0xc1, 0x36, 0x70, 0xb6,
  0xea, 0xc1, 0x76, 0x39, 0x95, 0x32, 0x0b, 0xab, 0x0a, 0x37, 0x10, 0xbc,
  0x76, 0x3f, 0x10, 0x39, 0x59, 0xb2, 0xd2, 0xc2, 0xaf, 0x35, 0x46, 0xc8,
  0x19, 0xbf, 0xf0, 0xca, 0xb3, 0xb8, 0xf6, 0xc1, 0xdc, 0xb3, 0x0f, 0x2c,
  0x43, 0xaa, 0x3b, 0xb4, 0x6f, 0xa8, 0x5c, 0xab, 0x12, 0xb3, 0x9a, 0xb2,
  0xb2, 0xc8, 0xfa, 0xaf, 0xe2, 0xb9, 0xa2, 0xc9, 0x41, 0xb8, 0xb3, 0xab,
  0xe5, 0x3c, 0x46, 0xb5, 0x60, 0x2f, 0x02, 0xc1, 0xe2, 0x33, 0xc9, 0xba,
  0xa7, 0x36, 0xad, 0x30, 0x76, 0xc5, 0x9b, 0xc0, 0x0f, 0xb4, 0x82, 0xc1,
  0xb3, 0xc4, 0xaa, 0x3c, 0x0d, 0x42, 0x88, 0xaa, 0x2d, 0xbe, 0x3e, 0xb0,
  0x2e, 0xbc, 0xad, 0x39, 0x07, 0xc0, 0xf1, 0xb6, 0xb9, 0xc5, 0xdd, 0x39,
  0x47, 0xc7, 0x5c, 0xac, 0x7a, 0x2a, 0xed, 0xc4, 0x2e, 0x40, 0x7b, 0x39,
  0xba, 0xc3, 0x6a, 0x43, 0x5a, 0xb6, 0x0c, 0x2f, 0xf9, 0xa7, 0x13, 0x2c,
  0x2c, 0x39, 0x62, 0x31, 0x42, 0x43, 0xdf, 0x38, 0x2b, 0xbb, 0x51, 0x42,
  0x0e, 0xa8, 0x92, 0xb1, 0x39, 0xaa, 0x30, 0x3a, 0x14, 0xb8, 0x5d, 0x3f,
  0xa1, 0xb0, 0xf6, 0xca, 0xb3, 0xac, 0xf1, 0xbf, 0xa1, 0xc2, 0xaf, 0x3d,
  0xf8, 0xb3, 0xef, 0xc2, 0x8d, 0xb9, 0x65, 0x3a, 0x29, 0xb7, 0x0b, 0x41,
  0xb2, 0x3c, 0xd0, 0x45, 0x85, 0xae, 0x83, 0xb4, 0x1a, 0xca, 0x2f, 0xbd,
  0xc2, 0xb5, 0x63, 0xbd, 0x5c, 0xbc, 0x08, 0xb7, 0x93, 0xc2, 0x00, 0xc9,
  0x1d, 0xbb, 0x54, 0x3b, 0xac, 0xc0, 0x2e, 0xbe, 0x0c, 0xc0, 0x84, 0xae,
  0x79, 0xbd, 0x5b, 0xb2, 0xeb, 0xbc, 0x65, 0xbc, 0xe6, 0xaf, 0x42, 0x39,
  0xbb, 0x3c, 0x96, 0xb8, 0x21, 0xbf, 0x1f, 0x3c, 0x33, 0xc2, 0xdf, 0x34,
  0x59, 0xb3, 0x64, 0xbd, 0x31, 0x43, 0xd4, 0x31, 0x73, 0x3d, 0xaf, 0xb6,
  0x3f, 0xb4, 0xff, 0x3d, 0x3b, 0xb6, 0x01, 0x3e, 0x64, 0x3d, 0x1f, 0xb9,
  0xb7, 0x3d, 0x05, 0xc5, 0x75, 0xc0, 0x6c, 0xb8, 0x28, 0x3b, 0x13, 0xc1,
  0xa4, 0xbe, 0xaa, 0xba, 0x3e, 0xbc, 0x5a, 0xb9, 0xe2, 0x3e, 0xb1, 0x44,
  0x2f, 0xc0, 0x9a, 0x3c, 0x05, 0xbe, 0x16, 0xc5, 0x9b, 0xc0, 0xba, 0xb7,
  0x72, 0xbb, 0xdc, 0xbf, 0x22, 0xc9, 0x1f, 0xbe, 0xd5, 0xba, 0x94, 0xc1,
  0x78, 0xb5, 0x95, 0xb8, 0xf7, 0xae, 0xd9, 0xb0, 0x4a, 0x3c, 0xe7, 0x44,
  0xf6, 0xa9, 0x4d, 0xb7, 0x86, 0x3a, 0xca, 0xbe, 0x38, 0x2e, 0x31, 0x36,
  0xbe, 0xbb, 0x3f, 0x42, 0x9c, 0xc6, 0x46, 0xc4, 0x06, 0x3f, 0xc6, 0xc3,
  0x9f, 0x2a, 0x61, 0x3c, 0x7f, 0x30, 0xd5, 0xb5, 0x9c, 0xbc, 0x4a, 0xc9,
  0x46, 0x3d, 0x4d, 0xb3, 0xd8, 0xc1, 0x71, 0xb8, 0x75, 0xc1, 0x40, 0xc4,
  0x69, 0x41, 0x17, 0xba, 0x65, 0x39, 0xa0, 0xa5, 0xb2, 0x41, 0xbb, 0xb4,
  0xe5, 0xc4, 0xc3, 0xb9, 0x15, 0x3c, 0xdc, 0xbf, 0xf8, 0xbf, 0x70, 0x2d,
  0xf4, 0xbd, 0x28, 0x3e, 0x07, 0x31, 0x8b, 0xbc, 0xb2, 0xba, 0xe2, 0xb9,
  0xd3, 0x3c, 0x8f, 0xc7, 0x6b, 0x44, 0x62, 0xc9, 0xf9, 0x39, 0x77, 0x31,
  0xfd, 0xcc, 0x7c, 0xc1, 0xdd, 0xae, 0x4c, 0x3a, 0xef, 0x3f, 0x41, 0xbc,
  0x90, 0x3e, 0xbf, 0xc4, 0x14, 0x31, 0x03, 0xd0, 0xdd, 0x3a, 0x68, 0xb1,
  0x8d, 0xc2, 0xb0, 0xb9, 0xa8, 0xb4, 0xdd, 0x3b, 0x7f, 0x34, 0x6f, 0x35,
  0xf3, 0xc4, 0xb7, 0x3c, 0x61, 0xb7, 0xb3, 0x29, 0x53, 0x28, 0x16, 0xbb,
  0xc8, 0xa8, 0x7b, 0x34, 0x25, 0xb5, 0xc1, 0xad, 0xc1, 0x37, 0xd6, 0x3c,
  0x0f, 0xb8, 0x26, 0xb7, 0x0d, 0xbf, 0x3d, 0x35, 0x14, 0xbf, 0xa3, 0xc3,
  0xb2, 0xbf, 0x15, 0xab, 0xbc, 0xbb, 0xbb, 0x3d, 0x95, 0xc7, 0x2d, 0x39,
  0x9a, 0x36, 0xdb, 0xb9, 0x04, 0xc2, 0x2d, 0x3c, 0x9b, 0xc8, 0x47, 0x3b,
  0x2c, 0x38, 0xe8, 0xb0, 0xd3, 0x38, 0x43, 0x2c, 0x72, 0xb9, 0x23, 0xb3,
  0xbc, 0x42, 0x39, 0xc7, 0xe3, 0x28, 0x5d, 0x3c, 0x35, 0x3b, 0x5c, 0xbd,
  0x19, 0xb0, 0x9f, 0x2f, 0x4c, 0xc0, 0xc6, 0xb6, 0xf1, 0xb9, 0x41, 0x3c,
  0x77, 0xba, 0x6d, 0xb7, 0xe2, 0x3b, 0xb7, 0x38, 0xab, 0x44, 0xd6, 0x31,
  0x3a, 0xbd, 0x5b, 0xc8, 0x3a, 0xb9, 0x3e, 0xb1, 0x61, 0xbd, 0x74, 0xb1,
  0x6a, 0xba, 0x7a, 0xb7, 0x97, 0x36, 0x54, 0xb5, 0x0f, 0x35, 0x4d, 0xbd,
  0xe0, 0x31, 0x8f, 0xba, 0x82, 0xa6, 0x83, 0x3e, 0xaf, 0xc6, 0x3a, 0x32,
  0x05, 0x3a, 0xa5, 0x44, 0x98, 0x3c, 0xca, 0x40, 0x9d, 0x2f, 0xf3, 0x31,
  0xe3, 0x39, 0xc0, 0x44, 0xb1, 0x2a, 0x8a, 0xb4, 0x72, 0xbf, 0x94, 0x3e,
  0xd7, 0xc1, 0xbd, 0xce, 0x5e, 0x42, 0x41, 0x33, 0x3c, 0xc2, 0x78, 0xc0,
  0x3a, 0xb9, 0x31, 0xad, 0x38, 0xc2, 0x8b, 0x35, 0x99, 0xc0, 0xe8, 0xc3,
  0x0e, 0xca, 0x22, 0x40, 0xfe, 0x3d, 0xd0, 0xba, 0x4f, 0x3b, 0x30, 0x3c,
  0x87, 0xa5, 0x99, 0x2d, 0x50, 0xb9, 0xbe, 0xc6, 0xa4, 0xba, 0x01, 0xca,
  0x00, 0xc5, 0x5b, 0x36, 0xf1, 0x42, 0x08, 0xc5, 0x02, 0xba, 0x97, 0xb4,
  0x7a, 0x41, 0x60, 0xae, 0x4a, 0x26, 0x58, 0xc4, 0x70, 0x3f, 0x6f, 0x41,
  0x66, 0xb9, 0x95, 0xb6, 0x02, 0xbc, 0xd5, 0xc6, 0x18, 0x38, 0xa8, 0x3b,
  0x76, 0xba, 0x91, 0x35, 0x1d, 0x32, 0xfa, 0xc5, 0xa7, 0xb7, 0xac, 0x44,
  0xa2, 0x3f, 0x11, 0xbb, 0x30, 0x36, 0x39, 0xbb, 0xad, 0xb9, 0x33, 0xbf,
  0x19, 0x39, 0x24, 0xbf, 0x02, 0x3d, 0x9c, 0x3f, 0xac, 0xbc, 0x3b, 0xbc,
  0x42, 0x3b, 0x54, 0xbc, 0x28, 0x44, 0x4d, 0xac, 0xc7, 0xb6, 0xba, 0xa9,
  0x30, 0xbc, 0xdd, 0xb8, 0x08, 0xc0, 0xce, 0xbf, 0x54, 0x3c, 0x4d, 0x3b,
  0xc3, 0x3e, 0x10, 0xbc, 0xa2, 0xb8, 0xc0, 0xb4, 0x4f, 0xc5, 0x25, 0xbe,
  0x2d, 0x44, 0xdb, 0x3c, 0xad, 0xc1, 0x5d, 0xbf, 0x9b, 0xc0, 0x81, 0xc1,
  0x93, 0x3a, 0xbf, 0xc1, 0x79, 0xb7, 0xb8, 0x45, 0x5a, 0x37, 0x24, 0xc5,
  0xd2, 0x3c, 0xac, 0xba, 0x88, 0xbc, 0x1c, 0xaa, 0x3d, 0x39, 0x3c, 0x33,
  0x26, 0xbf, 0x83, 0x39, 0x2f, 0xc4, 0x0b, 0x48, 0xfc, 0xc3, 0xe8, 0x2c,
  0x07, 0xc1, 0xc2, 0xb6, 0x54, 0x39, 0x17, 0xbe, 0xb7, 0xb9, 0x5a, 0xbb,
  0x27, 0xc0, 0xe2, 0x3a, 0x1d, 0xc2, 0xe8, 0xc3, 0x75, 0xbe, 0x94, 0x3e,
  0x94, 0xcc, 0xb5, 0xba, 0x50, 0x34, 0xea, 0xc3, 0x6a, 0x39, 0xaf, 0x40,
  0xd7, 0x32, 0x15, 0xbb, 0x03, 0xc2, 0x43, 0xc9, 0xc1, 0xb9, 0x49, 0x38,
  0x6d, 0xb3, 0x54, 0x34, 0xf2, 0x39, 0xbc, 0x32, 0xf5, 0xbc, 0xa4, 0x24,
  0x69, 0x40, 0x3a, 0x21, 0x40, 0x40, 0xf1, 0x2b, 0xed, 0x32, 0x69, 0xc2,
  0x24, 0xc0, 0xb2, 0xba, 0x43, 0x38, 0x58, 0x38, 0x8f, 0xc1, 0x80, 0x3b,
  0x45, 0x3c, 0x16, 0xb8, 0xb9, 0xb8, 0x2f, 0x38, 0x6e, 0x2d, 0x39, 0xc7,
  0x66, 0x48, 0x8c, 0xc3, 0x6d, 0x43, 0xeb, 0xbc, 0xa2, 0xc5, 0x9c, 0xad,
  0x9c, 0xb9, 0x61, 0x41, 0xf2, 0xb5, 0x0c, 0x3c, 0x99, 0x44, 0xcc, 0x3d,
  0xff, 0xc1, 0x53, 0x40, 0x82, 0xbc, 0x6a, 0x1c, 0xe0, 0xc3, 0xc4, 0xc1,
  0x9e, 0x33, 0x3a, 0x32, 0x82, 0xbe, 0xcc, 0x39, 0x70, 0xbe, 0x34, 0xc0,
  0xd9, 0x36, 0xa5, 0x2c, 0x9a, 0xba, 0x65, 0xbc, 0x59, 0x39, 0xfd, 0x30,
  0x18, 0xbf, 0xe1, 0x32, 0xa9, 0x39, 0x28, 0xc3, 0x47, 0xb8, 0x2d, 0xbe,
  0x0c, 0xbc, 0x98, 0x30, 0xec, 0xc0, 0x91, 0xc4, 0xdb, 0x40, 0xaf, 0x2c,
  0xde, 0xb9, 0x7e, 0xb7, 0xc1, 0xc6, 0xc3, 0x38, 0x46, 0x40, 0x7d, 0xb4,
  0x49, 0xbc, 0x1b, 0x2b, 0x3b, 0xbc, 0x93, 0xc2, 0x40, 0x3f, 0x8e, 0xb8,
  0x4f, 0x38, 0x98, 0xc4, 0xb0, 0xbd, 0xfc, 0xb0, 0xbc, 0x44, 0xed, 0xbb,
  0x2b, 0xc0, 0x32, 0x47, 0xc8, 0xb9, 0x13, 0x40, 0xb1, 0x27, 0xff, 0x46,
  0x4d, 0xbf, 0x39, 0xb7, 0x0f, 0x3c, 0xa9, 0xbc, 0x8d, 0x38, 0xc6, 0xb4,
  0x4b, 0xc0, 0xfb, 0xbc, 0x8e, 0xc7, 0x55, 0xbe, 0x02, 0x38, 0x32, 0x4a,
  0xf8, 0xc1, 0x84, 0xb0, 0x32, 0xbe, 0x11, 0x35, 0xe6, 0xcc, 0xf7, 0x3c,
  0x5a, 0x3a, 0xcf, 0x34, 0x2e, 0xb6, 0xf7, 0xbc, 0x3d, 0x3d, 0x1c, 0x44,
  0x95, 0xba, 0xd3, 0xc4, 0xa3, 0xc1, 0x11, 0x38, 0xcd, 0xc3, 0x62, 0xbd,
  0x88, 0x3a, 0x0b, 0x41, 0x4c, 0x38, 0x43, 0xc1, 0xe6, 0xa9, 0xb0, 0xb0,
  0x50, 0x2f, 0x3e, 0xab, 0x22, 0xcf, 0x5f, 0x3d, 0x48, 0xb2, 0x3f, 0x39,
  0x89, 0xbd, 0xb4, 0xa5, 0x4c, 0xbe, 0x1c, 0x38, 0x92, 0x3f, 0x9e, 0xb0,
  0xcc, 0x3d, 0xac, 0x30, 0x6c, 0x3f, 0xf0, 0xc5, 0xdd, 0xb4, 0xb3, 0x32,
  0x6f, 0xb0, 0x4e, 0xc0, 0x80, 0x38, 0x22, 0x34, 0x1e, 0x3c, 0xc6, 0x27,
  0x2c, 0x3e, 0x72, 0xc3, 0x46, 0x47, 0x75, 0x45, 0x9f, 0xc5, 0x44, 0xbf,
  0xd0, 0x44, 0x16, 0x3a, 0x25, 0xc0, 0xa7, 0xc3, 0xc3, 0xc6, 0x26, 0xc3,
  0xd3, 0x42, 0xbb, 0x3f, 0xbf, 0xc0, 0xc8, 0x43, 0xcc, 0xb8, 0x6e, 0x27,
  0xd5, 0xb8, 0x1d, 0xc5, 0xc9, 0x39, 0xe4, 0xbd, 0x9b, 0xbc, 0x6d, 0x37,
  0x3a, 0xb7, 0x16, 0xbd, 0x06, 0xbc, 0x80, 0xc6, 0x4c, 0xb8, 0xba, 0xbb,
  0x4f, 0x40, 0x87, 0xbb, 0x5f, 0xc2, 0xcd, 0x3c, 0xbd, 0x34, 0x91, 0xc3,
  0x7a, 0x3a, 0xf0, 0xad, 0xf0, 0xa3, 0x3e, 0xb8, 0xeb, 0x3c, 0x76, 0xc9,
  0x9d, 0x41, 0xeb, 0xb8, 0xf7, 0xc2, 0xa9, 0xc1, 0xc5, 0xb9, 0xde, 0x39,
  0xab, 0x3c, 0x04, 0xc0, 0x1f, 0x35, 0x98, 0xbb, 0x9e, 0xc5, 0x37, 0xbe,
  0x50, 0xb6, 0xd9, 0x29, 0x21, 0x3d, 0xea, 0x39, 0x8e, 0x3f, 0x3c, 0x33,
  0x67, 0x38, 0x01, 0xb9, 0xd4, 0xb7, 0x3d, 0xc4, 0x69, 0xb5, 0xa4, 0x41,
  0x21, 0xb2, 0xf9, 0x45, 0xc9, 0x32, 0xb4, 0x3b, 0x02, 0x3c, 0x02, 0xc7,
  0xe6, 0xbb, 0x1f, 0xbd, 0x5d, 0xb8, 0xc0, 0xb8, 0x4f, 0xc8, 0xa0, 0xb2,
  0x25, 0x42, 0x4f, 0x3c, 0x47, 0xb5, 0x63, 0xb7, 0x0a, 0x35, 0xfd, 0x2d,
  0x63, 0xb9, 0x33, 0x3c, 0x68, 0x3d, 0xd3, 0xc3, 0x04, 0x36, 0xb5, 0xbf,
  0x9f, 0xaa, 0x0a, 0xc1, 0xb9, 0xb5, 0xaa, 0x43, 0xe9, 0xc6, 0xd7, 0xb4,
  0x8c, 0x3c, 0x66, 0xc3, 0xe6, 0x38, 0xde, 0x35, 0x6a, 0x40, 0xfa, 0xbe,
  0x84, 0xa7, 0x89, 0xbf, 0xcc, 0xb8, 0x63, 0xba, 0xff, 0xc7, 0x57, 0xc5,
  0x98, 0x3d, 0x9a, 0x4a, 0x86, 0xc0, 0x19, 0x39, 0x22, 0xc3, 0xc8, 0xbe,
  0x40, 0xbf, 0x29, 0xba, 0x97, 0x3f, 0x30, 0x39, 0xa8, 0xbc, 0x9d, 0xbf,
  0x15, 0x3d, 0x87, 0x3f, 0x47, 0x3e, 0xa6, 0xb9, 0x79, 0xbe, 0xd6, 0xc0,
  0x94, 0xba, 0x1b, 0xbd, 0x82, 0x33, 0x84, 0xc8, 0x11, 0xc2, 0xd9, 0xc7,
  0x42, 0x3d, 0x28, 0xb4, 0x41, 0xc6, 0x68, 0xbd, 0xb9, 0x3d, 0x40, 0x3e,
  0xb3, 0x3f, 0x09, 0x45, 0x1a, 0xb9, 0x7b, 0xc6, 0xda, 0xb9, 0x25, 0xc5,
  0x5b, 0x36, 0xd8, 0xaa, 0x74, 0xbe, 0x0a, 0x45, 0xbc, 0xb3, 0x64, 0x33,
  0xf2, 0xbc, 0xd8, 0x3a, 0xd3, 0xbf, 0x42, 0xba, 0x8a, 0xbb, 0x87, 0x2d,
  0x67, 0xb0, 0x04, 0xb8, 0x7b, 0x40, 0xeb, 0x2a, 0x06, 0xc1, 0x80, 0x36,
  0x17, 0x39, 0xd2, 0xc3, 0xca, 0xc0, 0x62, 0x3e, 0xd4, 0xc3, 0xe1, 0xb8,
  0x86, 0x3c, 0x0a, 0xb6, 0x96, 0x3c, 0xd8, 0xb9, 0xae, 0x3d, 0x5f, 0xbc,
  0x20, 0x2a, 0xe7, 0x3d, 0xab, 0xbc, 0x6a, 0xc1, 0x76, 0xc0, 0x0a, 0x3f,
  0x3e, 0x45, 0x91, 0xab, 0x5a, 0x3f, 0xab, 0xb1, 0x89, 0xbc, 0x44, 0xc1,
  0xd9, 0x35, 0x4b, 0x3c, 0x4a, 0x3b, 0xf0, 0x3f, 0x98, 0xbc, 0x7e, 0xbd,
  0x2a, 0xbf, 0xb1, 0x37, 0x3a, 0xaa, 0x55, 0xc9, 0x3a, 0xbd, 0x81, 0xb5,
  0xaf, 0xa5, 0xea, 0x3f, 0xad, 0x3f, 0xd3, 0xb8, 0x33, 0x39, 0x9f, 0xbf,
  0xa6, 0x3f, 0x0c, 0xb9, 0xe8, 0xc1, 0x95, 0xc9, 0xcb, 0xb6, 0x0a, 0xb9,
  0x20, 0xc8, 0x64, 0x34, 0x0c, 0x3b, 0xbc, 0x3b, 0x22, 0xb7, 0x6d, 0xbc,
  0x20, 0x33, 0x52, 0xba, 0x80, 0xbb, 0xe1, 0x3f, 0x85, 0xb0, 0x48, 0xbd,
  0x78, 0x33, 0x78, 0x3b, 0x29, 0xb9, 0x7d, 0x39, 0x38, 0x3c, 0x03, 0xbc,
  0x5e, 0xb7, 0x9b, 0xad, 0x52, 0x41, 0x33, 0xc4, 0x8c, 0xb4, 0x69, 0x38,
  0x13, 0xc9, 0x01, 0xb8, 0xc9, 0xc0, 0x21, 0x45, 0x73, 0x3c, 0xc0, 0x35,
  0xe7, 0xbf, 0x15, 0x40, 0x6e, 0x39, 0x0e, 0x27, 0x3f, 0xc5, 0x2d, 0xc1,
  0x42, 0xb7, 0x0a, 0xbd, 0xa4, 0xbe, 0xb7, 0x41, 0xdc, 0xc1, 0x5a, 0x3f,
  0x8f, 0x3a, 0x4e, 0xb4, 0x30, 0x30, 0x3a, 0x3e, 0x77, 0x3a, 0xf8, 0x40,
  0x48, 0x46, 0x8d, 0x4b, 0xe6, 0x30, 0x38, 0x3a, 0x01, 0xc1, 0x7a, 0xc1,
  0xf2, 0xa0, 0x0e, 0xb8, 0x24, 0xb8, 0x9b, 0xb8, 0x06, 0xb0, 0xe2, 0xcc,
  0x4d, 0xbe, 0x8a, 0xc5, 0x1a, 0xbe, 0x84, 0xa8, 0x40, 0x3c, 0xde, 0xb7,
  0x4f, 0xa8, 0x1a, 0x3b, 0xba, 0xc3, 0x89, 0x32, 0x52, 0xc6, 0x81, 0xa6,
  0x57, 0xc4, 0x20, 0xc1, 0x47, 0x32, 0x30, 0x39, 0x9e, 0x3c, 0x5e, 0xbc,
  0x56, 0xc3, 0xf6, 0xb8, 0x52, 0x35, 0x9f, 0x39, 0x38, 0x31, 0x1c, 0x3c,
  0xef, 0x3b, 0xb9, 0x41, 0x04, 0x42, 0xbe, 0xae, 0x88, 0x39, 0x52, 0xb9,
  0xa8, 0xb8, 0xc2, 0x3d, 0x88, 0x2a, 0xa1, 0xb6, 0x0a, 0xbe, 0x8f, 0x35,
  0xde, 0xb2, 0xa3, 0x41, 0x03, 0x36, 0x51, 0xc1, 0x52, 0xc3, 0x95, 0xc1,
  0x7e, 0xc2, 0xfd, 0x3e, 0xcd, 0xc1, 0x27, 0x3b, 0x10, 0xc5, 0xb9, 0x47,
  0xaf, 0xbf, 0x84, 0x45, 0xc2, 0xbe, 0x46, 0x37, 0x51, 0x42, 0xb6, 0x47,
  0x43, 0x2c, 0xca, 0xb9, 0xb0, 0x3d, 0xbe, 0xc4, 0x6e, 0xbc, 0x9f, 0x2e,
  0x1d, 0x36, 0x8b, 0x36, 0x5e, 0xbc, 0x1a, 0x11, 0x5d, 0x3e, 0x7f, 0x4d,
  0x03, 0xb5, 0x59, 0x3c, 0x10, 0x30, 0x83, 0x31, 0x83, 0xc4, 0xd5, 0xbd,
  0x9b, 0xc2, 0xcc, 0x39, 0x2b, 0xbf, 0xde, 0x38, 0x1a, 0x3d, 0x6a, 0x3c,
  0xcb, 0x32, 0x48, 0x40, 0xea, 0xc5, 0x60, 0xb7, 0xa9, 0xc7, 0x2d, 0x42,
  0x65, 0x38, 0xf2, 0xc0, 0x57, 0xc0, 0xe8, 0x36, 0x08, 0xc5, 0x37, 0x4c,
  0x28, 0x3c, 0x54, 0x35, 0xef, 0x44, 0x05, 0x35, 0xc5, 0xb7, 0x4d, 0xc6,
  0x4c, 0xc4, 0x9b, 0xb5, 0xcf, 0xbe, 0x3c, 0xc2, 0x04, 0xc8, 0x0a, 0x38,
  0x1d, 0x37, 0x22, 0xbd, 0x41, 0x38, 0xa4, 0xc9, 0xfa, 0xbb, 0xfe, 0x3f,
  0x30, 0xb9, 0x97, 0x34, 0xab, 0xbb, 0xf7, 0xc5, 0x4d, 0xbd, 0x27, 0x3e,
  0x4a, 0xc0, 0x60, 0x42, 0xe3, 0x46, 0xa2, 0xcc, 0xef, 0xb0, 0xc4, 0xbd,
  0x48, 0xac, 0x9f, 0x40, 0x63, 0x3e, 0x12, 0xca, 0x2f, 0xba, 0x10, 0xc1,
  0xca, 0x3c, 0xc1, 0x3a, 0x1e, 0xc1, 0xe1, 0xc2, 0xaf, 0x3c, 0xaf, 0x32,
  0xaa, 0xc3, 0x61, 0xc8, 0x4e, 0x3e, 0x18, 0x3c, 0x21, 0x42, 0x73, 0x28,
  0xab, 0xbc, 0x97, 0x3c, 0x2b, 0xb8, 0xfd, 0x34, 0x1b, 0x38, 0x9f, 0xb9,
  0x53, 0x39, 0x49, 0x39, 0x8a, 0x41, 0x15, 0x36, 0xfb, 0xb3, 0x25, 0xc4,
  0x89, 0xbd, 0x33, 0xb7, 0xfd, 0xb9, 0xb9, 0x32, 0x0c, 0x3c, 0xd8, 0xc1,
  0x82, 0xb0, 0xa8, 0x33, 0x11, 0x3d, 0x80, 0xc0, 0x48, 0xc4, 0xfe, 0xb4,
  0x8f, 0xbe, 0xa1, 0xb8, 0x69, 0xc3, 0xfb, 0xba, 0x63, 0xbf, 0xac, 0x3d,
  0x12, 0x3a, 0xa1, 0x37, 0x75, 0x34, 0x6d, 0xc6, 0xdd, 0x2a, 0xaa, 0x33,
  0xdc, 0xc6, 0x2f, 0x48, 0x76, 0xbc, 0xe1, 0xc5, 0xb9, 0xbb, 0x4e, 0x3b,
  0xdf, 0xb9, 0x2e, 0x3f, 0x6f, 0xc0, 0xd0, 0x3d, 0xed, 0x31, 0x27, 0x31,
  0xdb, 0x37, 0x10, 0xb5, 0x33, 0xbd, 0xec, 0xbf, 0x89, 0xcd, 0x97, 0xbf,
  0xb6, 0x33, 0x19, 0xc4, 0x90, 0xbc, 0x91, 0xae, 0x03, 0xbc, 0x0d, 0xb2,
  0xfd, 0xa0, 0xc9, 0x45, 0xe7, 0xb8, 0x8e, 0xc4, 0x09, 0xaf, 0x38, 0xbf,
  0xd9, 0xb7, 0x55, 0xac, 0x31, 0x38, 0x5d, 0x3f, 0x12, 0x43, 0x01, 0x22,
  0x13, 0xbe, 0x2b, 0xc0, 0x3b, 0xc7, 0x7e, 0xc5, 0x2a, 0xbc, 0x70, 0xba,
  0x48, 0xb8, 0x91, 0xb1, 0x90, 0xba, 0xdd, 0x36, 0xa9, 0xcb, 0x2b, 0x41,
  0x9e, 0xc0, 0x18, 0xc4, 0xfa, 0xc5, 0x1b, 0xb5, 0x21, 0x39, 0xb0, 0x39,
  0x6b, 0x30, 0xd7, 0x31, 0x85, 0xbf, 0xbb, 0xbd, 0x2b, 0xad, 0x2c, 0xc0,
  0x87, 0xc6, 0x31, 0x2e, 0x09, 0xb7, 0xf1, 0xb8, 0x6d, 0x3a, 0x01, 0x39,
  0xb6, 0xb4, 0xd8, 0x31, 0x54, 0xc2, 0xa1, 0x32, 0x42, 0xb8, 0xc8, 0xc5,
  0x89, 0x43, 0xc3, 0x28, 0xff, 0xb5, 0x29, 0x2f, 0xa4, 0x22, 0x9b, 0x3f,
  0xea, 0xc2, 0xd1, 0x38, 0x9d, 0xbc, 0x8e, 0x43, 0x9c, 0xc5, 0x26, 0xc8,
  0xb5, 0xbc, 0xe7, 0xb8, 0x30, 0x3e, 0x4a, 0x44, 0xd5, 0xbd, 0x8d, 0xb1,
  0xfa, 0xb8, 0x02, 0xbe, 0xa0, 0x39, 0x94, 0xb4, 0xa6, 0xba, 0xd7, 0x3d,
  0xde, 0x3a, 0x51, 0x2f, 0x81, 0xc2, 0xb2, 0xba, 0xc4, 0xb8, 0x69, 0xc4,
  0x3c, 0xbb, 0x46, 0x36, 0x87, 0x3a, 0x29, 0x37, 0x7a, 0x24, 0x63, 0xbf,
  0x8d, 0xbb, 0x69, 0x41, 0x66, 0xc4, 0xea, 0x38, 0x46, 0x2e, 0x29, 0xbc,
  0xbc, 0xbb, 0xb4, 0xc1, 0x13, 0x3a, 0x48, 0x30, 0xd7, 0x3a, 0xf1, 0x2c,
  0x3c, 0xc4, 0x0d, 0xc0, 0x06, 0x38, 0x8e, 0xbc, 0x6e, 0x3b, 0xa9, 0x3d,
  0xb2, 0x40, 0xac, 0xae, 0x51, 0xc5, 0xd7, 0xc4, 0x34, 0x3c, 0x68, 0x48,
  0xeb, 0xb4, 0x01, 0xc8, 0x2e, 0xaf, 0xb1, 0xc3, 0x79, 0x36, 0xd2, 0xbb,
  0xee, 0x38, 0x52, 0xbf, 0xed, 0xb1, 0xd6, 0xac, 0xc5, 0x37, 0x95, 0x30,
  0x98, 0xc9, 0x0a, 0x30, 0xd2, 0xbc, 0x64, 0x36, 0x1d, 0x3a, 0x65, 0xb9,
  0x82, 0x39, 0x27, 0xb8, 0x02, 0xc8, 0x76, 0xc8, 0x9a, 0xc2, 0xfe, 0x38,
  0x9b, 0xbf, 0x1a, 0xa9, 0xac, 0x3c, 0xe9, 0xc0, 0x1a, 0xba, 0x31, 0xc5,
  0xd5, 0x34, 0xcd, 0xc4, 0x50, 0xc6, 0x02, 0xc9, 0x8e, 0x3d, 0x45, 0xc4,
  0xf6, 0x3c, 0x4e, 0xb7, 0xd0, 0xc1, 0x9b, 0xc2, 0x79, 0xa0, 0x1f, 0xbd,
  0x3d, 0xcd, 0x38, 0xc4, 0xd7, 0x39, 0x6e, 0xc7, 0x44, 0x3c, 0x6d, 0xa8,
  0x4e, 0xc5, 0x3a, 0x38, 0x70, 0x3f, 0x43, 0xb9, 0x68, 0xbe, 0xc8, 0x30,
  0x5c, 0x34, 0x38, 0xbb, 0xe7, 0xba, 0x7f, 0xc4, 0xff, 0x30, 0x22, 0xc4,
  0xdf, 0xbf, 0x2f, 0xbc, 0x5a, 0xb9, 0x8d, 0xb5, 0x51, 0xc1, 0xec, 0x44,
  0x20, 0xcd, 0x87, 0x45, 0x9a, 0xc2, 0x9f, 0xb2, 0xa9, 0x3d, 0xd6, 0xb9,
  0x12, 0x41, 0xd9, 0x3f, 0x8d, 0xbd, 0x8b, 0x3b, 0x8f, 0xc5, 0x39, 0xc8,
  0xea, 0xc4, 0x27, 0xca, 0x3e, 0x36, 0x51, 0x3b, 0x63, 0x42, 0x28, 0xb6,
  0x3a, 0x2f, 0x53, 0x38, 0x98, 0x3c, 0x38, 0x9f, 0x76, 0xb6, 0xe8, 0xc4,
  0xa3, 0xb5, 0x94, 0x38, 0x61, 0x37, 0x30, 0x35, 0x5e, 0x3d, 0x1e, 0x34,
  0x00, 0x3c, 0xe8, 0x34, 0x41, 0xb2, 0xee, 0xbb, 0xd6, 0xac, 0x1c, 0x36,
  0x9e, 0x38, 0x0f, 0x40, 0xd1, 0xb6, 0x63, 0xc2, 0x0b, 0xba, 0x20, 0xc4,
  0xea, 0x40, 0xd3, 0xb3, 0x99, 0x43, 0x19, 0xbb, 0x0c, 0xc2, 0xce, 0xbc,
  0xf3, 0x3f, 0x08, 0x38, 0x8c, 0xc4, 0x26, 0x39, 0xe0, 0x21, 0x38, 0x2c,
  0x5c, 0x3d, 0x1e, 0x40, 0x14, 0x41, 0x85, 0x38, 0x97, 0xc0, 0x96, 0xbc,
  0x5b, 0x33, 0x91, 0xc7, 0xe6, 0xb8, 0xe7, 0xbd, 0xb6, 0xbc, 0x1d, 0xc4,
  0xc9, 0x38, 0x09, 0x38, 0x54, 0x3c, 0xa3, 0xbd, 0x76, 0x3c, 0x63, 0xb8,
  0x01, 0x40, 0x67, 0x37, 0xcf, 0xc8, 0xb2, 0x34, 0x68, 0xb7, 0x30, 0x3d,
  0xea, 0xc1, 0xe1, 0xaa, 0x89, 0xba, 0x54, 0xb1, 0xed, 0x43, 0xc8, 0x3b,
  0x7a, 0x38, 0x63, 0x3c, 0x07, 0x38, 0x7c, 0x36, 0xa9, 0xc8, 0x91, 0xc4,
  0xd5, 0x38, 0xe2, 0x3c, 0x6e, 0x48, 0x80, 0x37, 0xce, 0xbf, 0x29, 0xbd,
  0x31, 0xc3, 0x96, 0xc8, 0xcb, 0xb9, 0x3c, 0x32, 0xbc, 0xc3, 0xb8, 0xb8,
  0x1c, 0xb6, 0xb9, 0x3c, 0xa9, 0xc5, 0xf1, 0x3d, 0xcb, 0xb5, 0x1d, 0x42,
  0xd3, 0x2c, 0x5b, 0x3d, 0xbe, 0x35, 0xbd, 0x3b, 0xca, 0xbf, 0xb9, 0xb7,
  0x82, 0x3f, 0x79, 0xb4, 0xe2, 0x34, 0x97, 0xb4, 0xda, 0x40, 0x1e, 0x3f,
  0x92, 0xb4, 0x6b, 0x42, 0x87, 0xbe, 0x92, 0xb4, 0x6c, 0x34, 0x88, 0x3e,
  0x90, 0xba, 0x3e, 0xbe, 0x8c, 0x3e, 0x92, 0xc2, 0x3d, 0x34, 0x0b, 0xb1,
  0x25, 0xc4, 0xbf, 0xb9, 0x76, 0x38, 0xb9, 0x3a, 0x12, 0xc3, 0x2e, 0xba,
  0x38, 0xc0, 0x2c, 0xc0, 0xba, 0xc5, 0x2b, 0xcc, 0xfb, 0x39, 0xe4, 0x2d,
  0x15, 0x35, 0x50, 0x43, 0xd4, 0xad, 0x02, 0xc2, 0xd9, 0x39, 0x2d, 0xbb,
  0x4a, 0x29, 0x37, 0xbc, 0x36, 0x3a, 0x6f, 0x40, 0xce, 0xb6, 0x1b, 0xac,
  0x01, 0xb7, 0xe2, 0xaa, 0x47, 0x3c, 0x90, 0xb8, 0xf4, 0xb1, 0xa0, 0x3a,
  0xa1, 0x35, 0xa8, 0xbb, 0xf2, 0xbc, 0x32, 0x3b, 0x88, 0xb1, 0x15, 0xb7,
  0xc6, 0xc4, 0x7e, 0xac, 0x90, 0x25, 0xe7, 0xbc, 0x05, 0xbf, 0x50, 0xba,
  0xec, 0xc8, 0x99, 0xb6, 0xae, 0x35, 0x95, 0x38, 0x54, 0xc5, 0x86, 0xbc,
  0x7f, 0x37, 0x04, 0x3e, 0x77, 0x35, 0x5e, 0xba, 0xa4, 0xb9, 0x34, 0xbc,
  0x4d, 0x3f, 0xd0, 0xc4, 0xf6, 0x31, 0x0e, 0x42, 0x16, 0xc8, 0xc9, 0xc4,
  0x95, 0xad, 0xc1, 0xc4, 0x40, 0xb3, 0x52, 0xbc, 0x12, 0x3d, 0xda, 0xc1,
  0x1a, 0x30, 0x13, 0x35, 0xfc, 0x3e, 0x47, 0xa3, 0x6b, 0xcd, 0x30, 0xb4,
  0x5e, 0x40, 0x6f, 0x3f, 0xc1, 0x3b, 0x0d, 0x3a, 0x38, 0xbe, 0xd6, 0xb8,
  0x17, 0xc4, 0xe6, 0xae, 0x63, 0xc2, 0x04, 0xad, 0xac, 0xbb, 0xcd, 0xae,
  0x0c, 0x33, 0xb5, 0x38, 0xb1, 0x33, 0x26, 0xb9, 0x4b, 0x42, 0xa9, 0xc3,
  0x03, 0xc7, 0x08, 0xc5, 0x82, 0x2c, 0x64, 0xc1, 0x4b, 0xc1, 0x6e, 0x38,
  0xbb, 0xb8, 0x46, 0xc9, 0xf1, 0xad, 0x45, 0xb6, 0xdd, 0xce, 0xd1, 0xb6,
  0xd5, 0xb6, 0xa8, 0xcd, 0xb9, 0x2b, 0x50, 0x33, 0x66, 0xc5, 0xc4, 0x3b,
  0x21, 0x41, 0xb1, 0xa8, 0x42, 0xc6, 0x28, 0x31, 0x2d, 0x34, 0x27, 0x3e,
  0xa1, 0xc1, 0x3b, 0xb3, 0x19, 0xb8, 0xfb, 0x3d, 0x85, 0xbe, 0x86, 0x38,
  0x16, 0x31, 0x5f, 0x35, 0x0f, 0xb8, 0x8b, 0xc0, 0x7c, 0x46, 0xbe, 0x44,
  0x7c, 0x41, 0xd6, 0xb2, 0xde, 0xb9, 0x9f, 0x3a, 0xb3, 0xbe, 0x8e, 0xb3,
  0xbc, 0xb6, 0xde, 0xc1, 0x5f, 0xb9, 0xb6, 0x3e, 0xd2, 0xc2, 0x27, 0x45,
  0x25, 0xb8, 0x92, 0xc2, 0xfd, 0xb8, 0x52, 0x38, 0xad, 0x35, 0xb4, 0x35,
  0x92, 0x30, 0x9f, 0xbb, 0x52, 0x37, 0xbb, 0xc1, 0x95, 0x30, 0x86, 0xbf,
  0x4a, 0x34, 0xa9, 0x3c, 0x79, 0xc1, 0x9f, 0xa6, 0x1a, 0xa6, 0xa1, 0xc4,
  0x67, 0x2b, 0xae, 0xbe, 0xe3, 0x30, 0x03, 0x3c, 0x6a, 0x3f, 0x8d, 0xc6,
  0x7f, 0x40, 0xf2, 0x3b, 0xba, 0xbe, 0x62, 0x34, 0x24, 0xc1, 0xfa, 0xaa,
  0x55, 0x42, 0x6c, 0x31, 0x4b, 0x45, 0x92, 0x35, 0x61, 0x3c, 0x63, 0xb8,
  0xfe, 0x40, 0xd3, 0x3a, 0x91, 0x35, 0x08, 0x37, 0x3e, 0xbd, 0x55, 0xb4,
  0xdc, 0x43, 0xb2, 0xbe, 0x0d, 0x3d, 0x85, 0x3d, 0x52, 0x3a, 0x30, 0x3f,
  0x96, 0x2c, 0x6c, 0xc0, 0xbe, 0x3d, 0xca, 0xbc, 0xe2, 0x28, 0x3f, 0x33,
  0x0b, 0xb9, 0xbe, 0xb8, 0xc9, 0x30, 0x8a, 0xb2, 0xda, 0xb5, 0x35, 0x34,
  0x97, 0xbc, 0xe4, 0xb7, 0x4f, 0xbf, 0xdb, 0x47, 0xf0, 0x35, 0x62, 0x32,
  0xb8, 0x3c, 0x04, 0xab, 0x6b, 0xc4, 0x29, 0x38, 0xba, 0x34, 0xa9, 0x3d,
  0xf3, 0xba, 0xec, 0x2a, 0x6e, 0x3c, 0x45, 0x3b, 0xe7, 0xbe, 0x51, 0x31,
  0x2e, 0xc1, 0xc7, 0x33, 0x86, 0xbf, 0xc8, 0xc6, 0x44, 0xb6, 0xe3, 0xbf,
  0x8d, 0x30, 0x74, 0xba, 0x7a, 0x2e, 0xa8, 0x38, 0xcb, 0x31, 0x18, 0xc4,
  0xa3, 0xc3, 0x2f, 0xc0, 0x3f, 0x3d, 0x40, 0x44, 0x16, 0xbf, 0xf2, 0xbd,
  0xf3, 0xc0, 0x01, 0x41, 0xb2, 0xbf, 0x0d, 0x32, 0x44, 0x37, 0x23, 0x3c,
  0x1c, 0x3b, 0x5f, 0x3d, 0x57, 0x45, 0x42, 0xc0, 0xcf, 0x3b, 0x2b, 0xc4,
  0x0f, 0x3c, 0x2e, 0xb5, 0x0e, 0xb7, 0x84, 0xbc, 0xf0, 0xb2, 0xcd, 0xc8,
  0xd6, 0xae, 0x85, 0xcd, 0x27, 0xca, 0xc7, 0xb8, 0xdd, 0xb4, 0x9c, 0xbc,
  0x60, 0xbf, 0x69, 0xba, 0x4a, 0xbc, 0xa6, 0xc8, 0x0a, 0x3d, 0xd4, 0xc7,
  0xf1, 0xb6, 0xfa, 0x42, 0x81, 0x2c, 0xc9, 0xb8, 0xe6, 0x38, 0x73, 0x36,
  0x99, 0xc0, 0xe1, 0xc1, 0x7b, 0xb8, 0x42, 0xb0, 0xde, 0xba, 0x09, 0xbb,
  0x69, 0xc4, 0xb2, 0x41, 0xf8, 0x3a, 0x26, 0x23, 0x7f, 0x3b, 0xcf, 0xbe,
  0xc0, 0xa7, 0xfd, 0x30, 0x1d, 0xb2, 0x67, 0x3d, 0x01, 0x38, 0x22, 0x3e,
  0x40, 0xb6, 0x78, 0xc0, 0x34, 0x2b, 0x89, 0xc1, 0x54, 0x40, 0x44, 0x3b,
  0xdf, 0xc6, 0x57, 0xba, 0x64, 0xb4, 0xf8, 0x32, 0x53, 0xbd, 0xbc, 0x37,
  0x6e, 0x30, 0x11, 0x32, 0x01, 0xc4, 0x3f, 0x3c, 0x66, 0xc4, 0xbb, 0xb3,
  0xea, 0xac, 0x57, 0x39, 0xf8, 0x3c, 0x00, 0xb3, 0x36, 0x3d, 0x2d, 0xc7,
  0x47, 0xba, 0xe1, 0xc6, 0x80, 0x38, 0xe2, 0xba, 0x3b, 0xab, 0x01, 0x45,
  0xad, 0x31, 0x72, 0xbe, 0x09, 0xa6, 0xf4, 0xbc, 0x8a, 0x37, 0x1a, 0xba,
  0xee, 0x37, 0x76, 0xab, 0xbf, 0xc2, 0xfa, 0xb0, 0xf2, 0xc1, 0x93, 0xc8,
  0x4f, 0x3c, 0x8c, 0x31, 0xa1, 0xbd, 0xd8, 0x2e, 0xb3, 0xad, 0x36, 0x3e,
  0x78, 0xa9, 0x45, 0x3c, 0xd5, 0xba, 0xe1, 0xb5, 0x4a, 0x38, 0x31, 0xc7,
  0x53, 0xc0, 0xc8, 0x42, 0x4e, 0xc2, 0x6a, 0xc4, 0xcb, 0xba, 0xf3, 0x3e,
  0xe4, 0xb8, 0x9b, 0x42, 0xb5, 0x38, 0x40, 0xb9, 0x81, 0x3d, 0xc8, 0xc8,
  0x2c, 0x30, 0xda, 0x31, 0xa8, 0xc8, 0x10, 0xc9, 0xc0, 0x38, 0x52, 0x3f,
  0x29, 0xc0, 0x23, 0x2f, 0x4a, 0x38, 0xa9, 0xc3, 0xfa, 0x3d, 0x0a, 0x2f,
  0xb1, 0x39, 0x66, 0xc0, 0xf6, 0x35, 0x51, 0xc8, 0xc8, 0x2f, 0x17, 0xa4,
  0xa2, 0x30, 0x17, 0x41, 0xe6, 0xb8, 0x4c, 0xc6, 0x38, 0xba, 0x64, 0xb2,
  0x99, 0xbe, 0xc1, 0xb7, 0x4d, 0xc4, 0x09, 0xc6, 0x7b, 0x3d, 0x21, 0x36,
  0x21, 0xc0, 0x23, 0x3d, 0x66, 0xc3, 0x61, 0x41, 0x1f, 0xbc, 0x5e, 0xc0,
  0x7f, 0xc3, 0x7f, 0x3e, 0xc0, 0x34, 0x6f, 0xc5, 0xce, 0xb3, 0x2b, 0xbc,
  0x67, 0x3a, 0x20, 0xc0, 0xff, 0x3b, 0x4a, 0xc7, 0x49, 0x3c, 0xc8, 0xac,
  0x96, 0xb0, 0x38, 0xba, 0xbe, 0xb3, 0x03, 0xbe, 0xe8, 0x3b, 0x84, 0x3b,
  0xb1, 0xb1, 0xc6, 0xbc, 0xfd, 0x3b, 0x3a, 0xba, 0x71, 0xaf, 0x50, 0xb8,
  0x7b, 0xb4, 0xcc, 0x31, 0x74, 0x33, 0x7f, 0xc2, 0x51, 0x42, 0x3b, 0x3b,
  0x7f, 0xc7, 0xd4, 0x39, 0x73, 0xc7, 0xf1, 0x2e, 0x60, 0x38, 0x68, 0x39,
  0xe7, 0x3f, 0x63, 0xa9, 0x1f, 0x3c, 0xcd, 0x36, 0x7c, 0xc0, 0x9b, 0xbc,
  0xfe, 0x3d, 0xc4, 0x2d, 0x37, 0xb6, 0x16, 0x40, 0x79, 0xa9, 0x79, 0x33,
  0xac, 0x38, 0x96, 0xc2, 0x93, 0x3c, 0x3f, 0xc4, 0xcd, 0x3c, 0x4d, 0xc0,
  0xb3, 0x2c, 0x57, 0xc1, 0x3d, 0xa8, 0x3f, 0x33, 0xa3, 0x3d, 0x5a, 0xc1,
  0xb8, 0x38, 0xa9, 0x34, 0xfb, 0x40, 0xbb, 0x3b, 0x33, 0x49, 0xcb, 0x33,
  0x5d, 0xb0, 0x4f, 0x43, 0x55, 0x3c, 0x82, 0x29, 0x4c, 0xb8, 0x08, 0xa8,
  0x41, 0xc4, 0xf2, 0x3f, 0x8f, 0x32, 0x8f, 0xc0, 0x5c, 0xbc, 0x2d, 0xba,
  0xcb, 0xa6, 0x1b, 0xa4, 0x5f, 0xb9, 0x9d, 0x3b, 0x16, 0x3f, 0x8d, 0xc0,
  0x50, 0xc0, 0x41, 0x44, 0x0d, 0xbc, 0xa3, 0xc4, 0x31, 0xb6, 0x02, 0x38,
  0xfa, 0x3c, 0xaa, 0x48, 0x3f, 0x31, 0x3a, 0xbb, 0x96, 0x40, 0x30, 0xbe,
  0x3a, 0x34, 0x74, 0xbd, 0x1d, 0x35, 0x51, 0xb0, 0xc8, 0x84, 0x38, 0xbb,
  0x35, 0xc0, 0x49, 0xb0, 0xe8, 0x31, 0x72, 0x39, 0x2c, 0x34, 0x02, 0xba,
  0x4b, 0x3c, 0x76, 0x2f, 0x90, 0x2e, 0x66, 0xc2, 0x7a, 0x21, 0xd1, 0xae,
  0x9d, 0xb8, 0xf6, 0x30, 0xce, 0xc0, 0xf7, 0xbf, 0xa7, 0xcd, 0xcc, 0x2f,
  0x49, 0xc9, 0x43, 0xa2, 0x2a, 0xc6, 0x62, 0xb0, 0xc1, 0xbc, 0x33, 0x42,
  0x26, 0x2c, 0x14, 0xbc, 0x99, 0xbe, 0x60, 0xba, 0x43, 0xb2, 0x03, 0xc6,
  0x22, 0x3d, 0x31, 0xb8, 0x67, 0x34, 0x24, 0x9f, 0x1e, 0xb4, 0x0f, 0xae,
  0x6c, 0x2e, 0xcb, 0xb1, 0x7f, 0x2f, 0x9b, 0xc1, 0x17, 0xb6, 0x9d, 0x3d,
  0xe7, 0x3a, 0xae, 0x3b, 0x54, 0x38, 0x2b, 0x38, 0xa8, 0x9a, 0x61, 0xba,
  0x3b, 0xb0, 0x42, 0x3f, 0xe5, 0x33, 0xd2, 0x36, 0x4b, 0x39, 0xff, 0xb8,
  0x52, 0x3e, 0x93, 0xba, 0x65, 0x39, 0x67, 0x2f, 0xef, 0xba, 0x47, 0x30,
  0xbd, 0xbc, 0x67, 0xb6, 0xab, 0xc1, 0xe6, 0xb4, 0x8c, 0x36, 0xe2, 0xb2,
  0x9b, 0xc2, 0x2a, 0x3e, 0x4b, 0xc1, 0x38, 0x34, 0xb6, 0xba, 0x12, 0x3a,
  0x3c, 0x3a, 0x85, 0x21, 0x2a, 0xbf, 0xa1, 0xb7, 0x36, 0x38, 0x18, 0xc8,
  0xd4, 0x3e, 0x6c, 0xbf, 0xae, 0xb8, 0xa4, 0xca, 0x55, 0x22, 0xc1, 0x39,
  0xc0, 0xa2, 0xcf, 0xb4, 0x4d, 0x3f, 0x26, 0x34, 0x91, 0x30, 0x9b, 0x33,
  0xa1, 0x48, 0xff, 0x34, 0xe7, 0xb7, 0x53, 0xbf, 0x72, 0xab, 0x37, 0xb8,
  0x8e, 0x9f, 0xeb, 0xab, 0xd9, 0xc2, 0xd6, 0xc4, 0x67, 0x31, 0x06, 0xae,
  0x3d, 0x3c, 0x25, 0xb0, 0xaa, 0xbe, 0x39, 0xc8, 0xc5, 0x34, 0x12, 0xbe,
  0xb6, 0xbe, 0xe3, 0x31, 0x78, 0x40, 0x40, 0xc2, 0x71, 0xbf, 0x81, 0xc2,
  0xfa, 0x24, 0xd6, 0x3a, 0x25, 0x3c, 0xb7, 0xc4, 0x4f, 0xbb, 0xb5, 0xb1,
  0x55, 0x4c, 0x44, 0xc2, 0x4c, 0x34, 0xec, 0xca, 0xa2, 0xba, 0xdb, 0x35,
  0x7c, 0xc5, 0xd7, 0xb0, 0xd5, 0x41, 0x1c, 0x29, 0xa2, 0xbb, 0xb5, 0x28,
  0x62, 0xbd, 0x80, 0x35, 0x8c, 0x41, 0x60, 0xbc, 0xe4, 0xbe, 0x1a, 0xbc,
  0x26, 0x2f, 0xab, 0xba, 0x7f, 0x3a, 0x84, 0x38, 0x82, 0x3c, 0x7a, 0x44,
  0x17, 0xb5, 0x0d, 0x3f, 0x14, 0x45, 0xd4, 0xb9, 0x94, 0xc8, 0xe5, 0x37,
  0xbb, 0xbd, 0x59, 0x3c, 0xcb, 0xa4, 0x16, 0x40, 0x92, 0xc3, 0xb7, 0xbf,
  0xd8, 0xb3, 0x7a, 0xc9, 0x8d, 0xad, 0x93, 0xba, 0xf2, 0x40, 0x84, 0x33,
  0x1a, 0x2a, 0x16, 0xc3, 0xd0, 0xc4, 0x55, 0xbd, 0x49, 0xc2, 0xf4, 0xc0,
  0x05, 0xb4, 0x71, 0xb0, 0x26, 0x33, 0x06, 0x21, 0xde, 0xc4, 0x6e, 0x35,
  0x4f, 0xbe, 0x4f, 0xb7, 0xc4, 0xa0, 0x54, 0xad, 0x7b, 0xbc, 0x07, 0xbc,
  0x8e, 0xb8, 0xc8, 0xc6, 0xdd, 0x3c, 0x2a, 0xc0, 0xca, 0xc4, 0x0c, 0xbc,
  0x03, 0xb2, 0x97, 0xa9, 0x2c, 0xb4, 0x31, 0xc0, 0xbb, 0xc5, 0x98, 0x30,
  0x95, 0x3a, 0xbd, 0x35, 0xdf, 0xc1, 0xbf, 0x3c, 0x17, 0x3c, 0xb7, 0x2f,
  0x7f, 0xbe, 0x1d, 0xb6, 0xfc, 0xc4, 0x24, 0x40, 0xef, 0x3c, 0x04, 0x44,
  0xd8, 0xb9, 0x15, 0x45, 0xed, 0x3d, 0xc3, 0xc4, 0xed, 0x33, 0xfd, 0xc0,
  0xcb, 0x35, 0x02, 0x32, 0x53, 0x3a, 0x2a, 0x3b, 0xf6, 0xbb, 0xf0, 0xc1,
  0x50, 0xb2, 0xfd, 0x32, 0x67, 0x41, 0x01, 0x2f, 0x5a, 0xb0, 0x9b, 0x3e,
  0xf7, 0xbd, 0xbc, 0xb6, 0xc1, 0xb2, 0x5e, 0xb1, 0xa5, 0xbd, 0x70, 0xc5,
  0xa1, 0xb1, 0x52, 0xbf, 0xd8, 0xb9, 0xe1, 0xbc, 0x3c, 0x36, 0x5a, 0x45,
  0x14, 0xbf, 0x04, 0xc5, 0x88, 0x40, 0x9c, 0x35, 0x55, 0xbd, 0x08, 0x3d,
  0x31, 0x38, 0x60, 0x3e, 0x8e, 0x3a, 0xf2, 0xbb, 0x72, 0xbc, 0x1b, 0xaf,
  0x07, 0xc0, 0xc2, 0x26, 0x00, 0xcb, 0xae, 0x31, 0xc4, 0x2f, 0x88, 0xc9,
  0x40, 0xb8, 0x34, 0xa9, 0x1a, 0xc0, 0x52, 0xc2, 0x89, 0xc5, 0x83, 0xb6,
  0xca, 0x42, 0x8f, 0x38, 0x90, 0xc4, 0x10, 0xbd, 0xc4, 0xc4, 0xa0, 0x35,
  0xea, 0x3a, 0x5e, 0xb9, 0xe5, 0x3b, 0x31, 0xba, 0x78, 0xaf, 0xcd, 0x3d,
  0x38, 0xbf, 0x63, 0x40, 0x54, 0x43, 0x0b, 0xb9, 0xe2, 0xc5, 0x19, 0xa1,
  0x98, 0x42, 0xf4, 0x34, 0xe6, 0xb2, 0xab, 0xc2, 0x7c, 0x41, 0x52, 0x38,
  0x05, 0xb7, 0x22, 0xc0, 0x07, 0xb8, 0xfb, 0xcc, 0x3d, 0x36, 0x40, 0xb0,
  0x38, 0xbf, 0x3e, 0x3e, 0x56, 0xaa, 0x55, 0x33, 0xdb, 0xb1, 0x9e, 0xac,
  0x13, 0x37, 0x1f, 0xb8, 0x18, 0x3d, 0x44, 0xbe, 0xb6, 0xb4, 0x84, 0x31,
  0x00, 0xb7, 0xbf, 0xb3, 0x2c, 0x31, 0x91, 0xb0, 0x2e, 0xb4, 0x22, 0xbc,
  0x9a, 0xbb, 0xe2, 0xb7, 0x0c, 0xc0, 0x81, 0xbe, 0x83, 0xb0, 0x89, 0xc3,
  0x66, 0x3d, 0xdb, 0x38, 0x1d, 0x3a, 0x47, 0x41, 0x33, 0x3c, 0xea, 0xb9,
  0x61, 0x33, 0x23, 0xb9, 0x77, 0x38, 0xc3, 0x39, 0x76, 0xc5, 0x18, 0x3b,
  0x0e, 0x36, 0x76, 0xbd, 0x83, 0xb8, 0x3a, 0x34, 0xe5, 0xb9, 0xdf, 0x35,
  0x5e, 0xbb, 0x3b, 0xb4, 0xff, 0xb9, 0x36, 0xce, 0x5f, 0x41, 0x0a, 0xbe,
  0xfb, 0xb9, 0xc5, 0xc4, 0x45, 0x36, 0x13, 0x3c, 0x39, 0xba, 0x56, 0x38,
  0xbb, 0xc5, 0xc7, 0x34, 0x13, 0xbf, 0xda, 0xb8, 0x69, 0xc8, 0xb4, 0x29,
  0x51, 0xc5, 0x8f, 0xc4, 0x47, 0xbd, 0xc3, 0xa0, 0x01, 0x3e, 0x36, 0xb4,
  0x88, 0xc2, 0x04, 0xc3, 0x77, 0xc2, 0x0b, 0xc2, 0xa0, 0xbd, 0x69, 0xb1,
  0x56, 0x34, 0x03, 0xc5, 0x27, 0xa8, 0x0a, 0x34, 0x05, 0xc1, 0xa3, 0xbd,
  0x20, 0xbd, 0xf1, 0x31, 0x52, 0x38, 0xdd, 0xc4, 0xab, 0x3c, 0x67, 0xbc,
  0x38, 0xb8, 0x3f, 0xb6, 0x76, 0xb6, 0xab, 0xb0, 0xf4, 0x49, 0xdd, 0x9b,
  0x5c, 0xad, 0xa5, 0xc8, 0x5c, 0x41, 0x5b, 0x38, 0x60, 0xc6, 0xe9, 0xbc,
  0x68, 0xc8, 0xcc, 0x29, 0x71, 0xb8, 0x31, 0xbe, 0x77, 0x38, 0xcb, 0x38,
  0x2b, 0xb1, 0x22, 0x3e, 0x3d, 0x38, 0x5e, 0xac, 0x5d, 0x3d, 0x04, 0x3d,
  0x1a, 0xb9, 0xa5, 0x3f, 0x16, 0x34, 0x5e, 0xc0, 0xaf, 0x41, 0x7c, 0xae,
  0xb3, 0xcb, 0x20, 0xbd, 0x4b, 0x45, 0x01, 0xbb, 0xef, 0xc4, 0xa5, 0x40,
  0x2e, 0xc1, 0x05, 0x40, 0xc8, 0x39, 0x32, 0x45, 0x55, 0xc2, 0x94, 0x3d,
  0xe5, 0xbe, 0x4d, 0xac, 0x51, 0x3b, 0x38, 0xbf, 0x18, 0xba, 0x4b, 0xae,
  0x6c, 0xc3, 0x0b, 0x30, 0xc8, 0x3b, 0xd4, 0x3b, 0x42, 0x35, 0x76, 0xbb,
  0xc0, 0x34, 0x3f, 0x35, 0x92, 0x33, 0x5b, 0xbb, 0xd8, 0xc1, 0xb5, 0xb6,
  0x8e, 0xb2, 0x77, 0x33, 0x9e, 0xbe, 0x40, 0x36, 0xf8, 0xba, 0x79, 0x31,
  0x06, 0x35, 0xbd, 0x38, 0x10, 0xba, 0x48, 0xae, 0x17, 0xbe, 0x67, 0xb9,
  0x40, 0xbf, 0x80, 0xb5, 0xc4, 0x43, 0x24, 0xb0, 0xc5, 0x34, 0x67, 0xaa,
  0x0f, 0xbc, 0x58, 0xc3, 0x07, 0xc0, 0x26, 0x3d, 0xad, 0xb6, 0x7e, 0xb1,
  0x5d, 0xbf, 0x73, 0xb0, 0xf6, 0xb8, 0x3f, 0xbf, 0x63, 0x26, 0x6b, 0xcb,
  0x1c, 0xcb, 0x5b, 0x37, 0x3c, 0x3c, 0x2c, 0xbe, 0xc5, 0xb5, 0xb3, 0x35,
  0xe9, 0x34, 0x07, 0x40, 0x66, 0xb7, 0x65, 0xb7, 0xa8, 0x31, 0xc8, 0x2f,
  0xb5, 0x38, 0x1c, 0xb5, 0x96, 0xb9, 0xd1, 0xc4, 0xb7, 0xbb, 0x39, 0xb3,
  0x7e, 0x3c, 0xf3, 0x2c, 0x4e, 0x37, 0x41, 0xc1, 0xe9, 0x22, 0x55, 0xb4,
  0x56, 0xc1, 0x16, 0xc0, 0x2b, 0xbf, 0x8d, 0xc9, 0xc5, 0x3a, 0x27, 0x40,
  0x9b, 0xad, 0xa0, 0xb0, 0xe4, 0x37, 0xc4, 0x3b, 0x70, 0xbc, 0x53, 0xc2,
  0xd4, 0x41, 0xca, 0x34, 0xd4, 0x39, 0x2f, 0xc8, 0x68, 0xb0, 0xfd, 0xb1,
  0x8a, 0xcc, 0xf6, 0xbb, 0xee, 0x35, 0xac, 0xbd, 0x02, 0xbc, 0x7b, 0xb0,
  0x07, 0xc4, 0xec, 0x37, 0xb3, 0xbe, 0x56, 0xb0, 0x76, 0x44, 0xfe, 0x36,
  0xd6, 0xb7, 0x5d, 0xc1, 0x4e, 0xc4, 0xb0, 0xb4, 0xe3, 0xb8, 0xe1, 0x3d,
  0x9c, 0xc0, 0x26, 0x36, 0xb5, 0xc0, 0xfd, 0xad, 0x64, 0x41, 0x1d, 0x44,
  0x60, 0xb4, 0x8a, 0xc8, 0x88, 0x38, 0xe7, 0xaf, 0x34, 0xc5, 0x09, 0x40,
  0x46, 0xb8, 0xcd, 0xc0, 0x83, 0x3d, 0x4a, 0x43, 0x40, 0x40, 0x8a, 0xbe,
  0x50, 0xc6, 0x88, 0xc6, 0x91, 0x36, 0xe4, 0xb0, 0x85, 0xc1, 0x56, 0xbc,
  0xfd, 0xb0, 0x20, 0xb4, 0x91, 0x3b, 0xd2, 0x30, 0xc4, 0xb8, 0xa6, 0x43,
  0xa6, 0xb8, 0x78, 0xc4, 0x18, 0x36, 0xc8, 0xb5, 0xbf, 0xb0, 0x9a, 0x38,
  0x0b, 0x3c, 0x26, 0x40, 0x13, 0x3a, 0xe3, 0xb8, 0xde, 0x9d, 0xc6, 0x2d,
  0xfc, 0xb5, 0xdf, 0xc3, 0xea, 0xba, 0x8e, 0xc8, 0x10, 0xbd, 0x3b, 0xb2,
  0x6e, 0x26, 0xde, 0xbc, 0xfc, 0xc8, 0xce, 0x38, 0xc6, 0xbd, 0x28, 0x2c,
  0xac, 0x39, 0xf5, 0x38, 0x6a, 0xb0, 0xa1, 0x34, 0xab, 0xc2, 0xed, 0x3c,
  0xb2, 0xb4, 0x28, 0xba, 0x4b, 0xc5, 0x21, 0x2a, 0x6f, 0xc5, 0xa7, 0xc0,
  0x6f, 0x30, 0x00, 0x3b, 0x24, 0xbf, 0x7a, 0x3e, 0x8e, 0x35, 0xd0, 0x3b,
  0xa2, 0x34, 0x6d, 0x38, 0xd2, 0xbe, 0xe1, 0x35, 0x74, 0x31, 0x88, 0xb5,
  0x25, 0xbd, 0x1e, 0xbc, 0xc4, 0xcd, 0x5c, 0x32, 0x7a, 0xb6, 0xb4, 0x44,
  0x78, 0xbb, 0xd6, 0x3a, 0x1e, 0xba, 0xe3, 0xb4, 0xb0, 0xbc, 0x39, 0xb9,
  0xe8, 0xc0, 0x0a, 0xbd, 0xf3, 0xbf, 0xb2, 0x2b, 0x4e, 0xb9, 0x13, 0xc3,
  0xe7, 0xb5, 0x6f, 0x33, 0x52, 0xc1, 0x31, 0xac, 0x12, 0xbc, 0xd0, 0xc9,
  0x6f, 0xb7, 0x16, 0xc0, 0x15, 0x3c, 0x35, 0xbe, 0xb7, 0xc0, 0x5e, 0xc8,
  0x02, 0x34, 0xb4, 0xb4, 0x78, 0x42, 0xaa, 0xc0, 0xca, 0x3f, 0x5a, 0x46,
  0x8e, 0x3d, 0x5b, 0xb7, 0x9b, 0xc5, 0xb0, 0xc4, 0xbf, 0xc4, 0x7d, 0x2c,
  0xcc, 0xbf, 0x3e, 0xb8, 0x76, 0xc1, 0xbf, 0x2e, 0xae, 0xc6, 0x1b, 0xbc,
  0x1d, 0xc9, 0x19, 0x3f, 0xf8, 0x33, 0xc8, 0xbb, 0x2b, 0xb0, 0xb0, 0xb8,
  0xb4, 0xb6, 0xf0, 0x3e, 0xe9, 0x4a, 0x24, 0x4a, 0x0f, 0xc0, 0x81, 0x34,
  0xc2, 0xba, 0x22, 0xc5, 0x0e, 0xc0, 0x1f, 0x3c, 0x9f, 0xb9, 0x56, 0x40,
  0xe3, 0x42, 0x2b, 0xc3, 0x0c, 0x44, 0x2b, 0xc0, 0x3b, 0xc2, 0x57, 0xb4,
  0xbc, 0x42, 0x69, 0x3a, 0x7d, 0xbf, 0x9b, 0xb0, 0xd5, 0x2e, 0x90, 0xa8,
  0xd5, 0xb8, 0x09, 0x41, 0x98, 0x3b, 0x12, 0xc0, 0x8e, 0x3a, 0x71, 0xbb,
  0xda, 0xb8, 0x37, 0xc1, 0x6c, 0x38, 0xfa, 0xb3, 0xc3, 0x31, 0x79, 0x3b,
  0xc4, 0xae, 0x69, 0xbc, 0x1c, 0xaf, 0xe1, 0xb7, 0x28, 0xc5, 0xea, 0xb4,
  0x68, 0x3a, 0x04, 0x34, 0x38, 0xc2, 0x5b, 0xb7, 0x37, 0xc0, 0xae, 0xbc,
  0x41, 0xc6, 0x32, 0x31, 0xe4, 0xbb, 0x8a, 0x3b, 0x24, 0x3c, 0xdf, 0xc5,
  0x07, 0x3e, 0x35, 0xb2, 0xf5, 0xb8, 0x52, 0x3a, 0x64, 0x3e, 0x72, 0xb1,
  0xf0, 0x40, 0x3f, 0x45, 0x08, 0xb0, 0x00, 0xc7, 0xb9, 0xc2, 0x98, 0x40,
  0x6f, 0x38, 0x5e, 0x3e, 0xf0, 0x2d, 0x31, 0xba, 0x3d, 0xb6, 0x85, 0xb8,
  0xe0, 0x2e, 0x08, 0xb5, 0xd6, 0x37, 0x26, 0xb3, 0xcb, 0xc0, 0x98, 0x1f,
  0x89, 0xbd, 0x2b, 0xc5, 0xdd, 0x39, 0x08, 0x39, 0xd1, 0xbc, 0x6c, 0x2c,
  0x3f, 0x40, 0xaa, 0x3f, 0xfe, 0x3b, 0xcd, 0x35, 0x4e, 0xaf, 0x01, 0x39,
  0xcc, 0x38, 0x05, 0xc2, 0x56, 0x27, 0x75, 0x41, 0xd9, 0x2e, 0x83, 0xbd,
  0x95, 0xb8, 0xab, 0x45, 0x83, 0xc0, 0xc7, 0xc8, 0xde, 0x3a, 0x64, 0xb7,
  0x3a, 0x30, 0x93, 0xca, 0x3f, 0xb7, 0xd9, 0xaf, 0x32, 0x45, 0x61, 0x39,
  0x28, 0xae, 0x0f, 0xc1, 0xc5, 0x3c, 0x29, 0xb3, 0x6a, 0x3d, 0xa1, 0xc2,
  0xa9, 0xbe, 0x01, 0x39, 0xc3, 0x41, 0x7a, 0xb0, 0x53, 0xb9, 0xe4, 0xb9,
  0xa1, 0x30, 0x4b, 0x3d, 0x6d, 0x34, 0x3e, 0x3e, 0x54, 0xba, 0x89, 0x3c,
  0x0e, 0xbe, 0x4b, 0xb4, 0xf3, 0xb8, 0x0d, 0x3f, 0x0a, 0x3d, 0xc1, 0xc9,
  0x18, 0xc4, 0x10, 0xbc, 0xc9, 0xc3, 0xdc, 0xba, 0xa2, 0x3b, 0x4d, 0xb4,
  0x0a, 0x9c, 0x0a, 0x44, 0x8d, 0x3c, 0xf9, 0xc4, 0x6a, 0xab, 0x44, 0xc1,
  0xb5, 0x3c, 0x67, 0x30, 0x88, 0xc4, 0xaf, 0xb6, 0xbc, 0xb4, 0xad, 0x2f,
  0x56, 0xbc, 0xe8, 0x29, 0xae, 0xb5, 0x42, 0x41, 0x2a, 0x34, 0x8d, 0x3f,
  0xc0, 0xb4, 0x2c, 0x3c, 0x05, 0xb8, 0x22, 0xa6, 0x8d, 0xbc, 0x12, 0x3b,
  0x3d, 0xb3, 0x1d, 0x38, 0x44, 0xbf, 0x96, 0xb6, 0x3c, 0xbd, 0x98, 0x41,
  0xe6, 0x3b, 0xe3, 0x38, 0xe6, 0xac, 0x1e, 0x2d, 0xb8, 0xbf, 0xb5, 0x3e,
  0x0f, 0x44, 0x62, 0x28, 0x18, 0x3f, 0xfb, 0xbc, 0x6e, 0xc0, 0x74, 0x3e,
  0x6a, 0x43, 0xd5, 0x35, 0x30, 0x35, 0xe4, 0xb9, 0xfc, 0xbc, 0x5a, 0xc3,
  0xec, 0xc2, 0x08, 0x39, 0xc7, 0xc0, 0x3a, 0x42, 0x74, 0xc2, 0xa7, 0xb6,
  0x54, 0x41, 0x60, 0x3c, 0x3e, 0xba, 0x79, 0x41, 0x3c, 0xbd, 0x85, 0xb6,
  0xe9, 0x3d, 0x0f, 0x35, 0x49, 0x3b, 0x13, 0x34, 0x6c, 0xc1, 0x3b, 0xb5,
  0xb0, 0xc8, 0xab, 0xbd, 0x6d, 0x37, 0x82, 0xbe, 0x53, 0xbd, 0x97, 0xb7,
  0xdc, 0xc1, 0x72, 0x23, 0xbd, 0xb3, 0xea, 0x34, 0x9b, 0xba, 0x75, 0xbf,
  0x10, 0x33, 0x11, 0xb5, 0x3e, 0x2d, 0x1e, 0x41, 0xaa, 0x35, 0xdc, 0x32,
  0x11, 0xc2, 0x87, 0x2e, 0xc5, 0xb3, 0x78, 0x30, 0x76, 0x3c, 0xb5, 0xa0,
  0x5c, 0xc2, 0xdf, 0xb5, 0x33, 0x3d, 0xbd, 0xa7, 0xc8, 0x39, 0x8b, 0x2c,
  0x01, 0xbc, 0xb5, 0x3e, 0x8d, 0xc0, 0xa1, 0x48, 0x18, 0x41, 0xfd, 0x36,
  0x15, 0x3c, 0x4d, 0xb3, 0xcb, 0xc4, 0x99, 0x2d, 0x4b, 0xc7, 0xae, 0xc0,
  0x00, 0x3c, 0xb3, 0x3f, 0xa3, 0xc4, 0x7f, 0x3b, 0xe2, 0xbe, 0x2b, 0x38,
  0xa8, 0xb2, 0x75, 0xb3, 0x61, 0x20, 0xea, 0x3c, 0x2e, 0xb9, 0x16, 0xc7,
  0xec, 0xc4, 0x34, 0x3c, 0x13, 0xc7, 0xb0, 0x28, 0xe6, 0x2d, 0x15, 0xc0,
  0x9b, 0xc0, 0x38, 0x41, 0x97, 0xc4, 0xc4, 0x46, 0x50, 0xc5, 0xac, 0xc6,
  0xe2, 0xc4, 0x08, 0x36, 0x71, 0xb8, 0x66, 0xbc, 0x50, 0xb5, 0x9e, 0x42,
  0x5b, 0xc2, 0x67, 0xc3, 0xc9, 0x3d, 0x90, 0xbb, 0x1a, 0x35, 0x58, 0xc0,
  0x0f, 0x33, 0x54, 0x34, 0x12, 0xad, 0xcf, 0x33, 0x90, 0xc0, 0x9a, 0xb6,
  0x9c, 0x3e, 0x63, 0xc3, 0xe4, 0xb0, 0xc6, 0x3a, 0xd6, 0x39, 0x65, 0xb7,
  0x90, 0xbd, 0x64, 0xc5, 0xdc, 0xbc, 0xc9, 0xba, 0xb2, 0xc5, 0x9d, 0xbc,
  0x4c, 0xc3, 0x90, 0xc2, 0xf9, 0x3a, 0xdf, 0xb5, 0xd5, 0x3d, 0xe3, 0xb6,
  0xef, 0x35, 0x81, 0x39, 0x50, 0xba, 0xc5, 0xb8, 0x84, 0xbc, 0xdc, 0x33,
  0x8e, 0xba, 0xe1, 0x34, 0x01, 0xb7, 0xfe, 0xb8, 0xa8, 0xc3, 0x2e, 0xc8,
  0x6f, 0x2b, 0xc4, 0xbe, 0xf9, 0xc5, 0x3d, 0xb5, 0x25, 0x3b, 0x2d, 0xcc,
  0x20, 0xb1, 0x7e, 0xbe, 0x47, 0x33, 0x25, 0x40, 0x26, 0xb1, 0xd9, 0xa6,
  0xde, 0x29, 0xbb, 0xb5, 0x1f, 0x4b, 0xd0, 0x31, 0xd6, 0xc2, 0xa6, 0x40,
  0x49, 0xbc, 0x3d, 0x38, 0x7f, 0xb7, 0xa8, 0xb5, 0xc8, 0xc6, 0xeb, 0x3d,
  0x63, 0xbb, 0x63, 0xbc, 0x43, 0xbc, 0xa2, 0x3d, 0xb4, 0xbf, 0x8e, 0xc7,
  0x8b, 0xc2, 0x43, 0xc5, 0xad, 0x42, 0x33, 0xc5, 0x5a, 0xc4, 0x21, 0xcd,
  0x20, 0xbb, 0x4f, 0xc7, 0x0d, 0x34, 0x58, 0x2b, 0x18, 0xc0, 0x61, 0xc7,
  0x3b, 0xb7, 0xd7, 0xb8, 0xa5, 0xca, 0x6a, 0xbc, 0x62, 0xb0, 0x2c, 0xbf,
  0xb7, 0xbe, 0xe0, 0xba, 0x48, 0xb0, 0x9d, 0xc4, 0xa3, 0x3a, 0xce, 0x37,
  0xf3, 0xb9, 0x9e, 0xbf, 0x07, 0xb4, 0xb8, 0x42, 0xe2, 0xbc, 0xb6, 0xb9,
  0x2b, 0xc2, 0x63, 0xbe, 0xa7, 0xc2, 0xf2, 0x36, 0x82, 0x30, 0xd5, 0xb7,
  0x20, 0xa4, 0x39, 0xc5, 0xa2, 0x33, 0x77, 0xc2, 0xa1, 0xbc, 0xc7, 0xc0,
  0x8b, 0x48, 0x28, 0xbf, 0xc7, 0xbd, 0x90, 0xc4, 0x9e, 0x3e, 0x8c, 0x3c,
  0x03, 0x37, 0x71, 0xc5, 0xfd, 0xc6, 0x6d, 0x4f, 0x1a, 0x3c, 0x14, 0xba,
  0x6c, 0xc5, 0x98, 0x3d, 0xce, 0xbc, 0x67, 0x36, 0xfc, 0xc0, 0x2b, 0x2d,
  0x72, 0xc1, 0xa4, 0x3d, 0x00, 0xbc, 0x09, 0x39, 0x09, 0xba, 0xe2, 0xbf,
  0xe8, 0x36, 0x08, 0x38, 0xcc, 0xbd, 0x20, 0xc8, 0xde, 0xb3, 0x23, 0xbe,
  0xb4, 0xbb, 0xe5, 0xbc, 0x30, 0xb8, 0x50, 0xc3, 0x51, 0x3f, 0xed, 0xc4,
  0x36, 0x38, 0x98, 0x37, 0xf2, 0xa9, 0x02, 0x2c, 0x13, 0xbd, 0xaf, 0x38,
  0xda, 0xbd, 0xbd, 0xbb, 0x08, 0xc1, 0xd5, 0x39, 0x9d, 0x3f, 0x4e, 0x3c,
  0xda, 0xb7, 0x3e, 0x3b, 0xc7, 0xc0, 0xb3, 0xc0, 0x8f, 0x35, 0x3a, 0x38,
  0x75, 0x3c, 0xeb, 0xc4, 0xa2, 0x3c, 0x6c, 0xc4, 0x2f, 0x40, 0xe0, 0xad,
  0x10, 0xaa, 0x4f, 0xc4, 0x43, 0xbc, 0x53, 0xc1, 0xb8, 0x36, 0x34, 0x3c,
  0x3b, 0xbf, 0xeb, 0xb9, 0xa2, 0xbe, 0xbc, 0xbf, 0x6f, 0x48, 0x4e, 0xc1,
  0xe1, 0xba, 0x30, 0xc5, 0xa9, 0xbc, 0xc6, 0x34, 0x95, 0xbc, 0x61, 0xb9,
  0xab, 0xb9, 0x3f, 0xbf, 0xc4, 0x3d, 0x97, 0xbc, 0x13, 0x38, 0x60, 0xc1,
  0x8b, 0x3e, 0xd7, 0xc0, 0xd4, 0xbb, 0x06, 0xc3, 0xe7, 0x3e, 0x97, 0x3d,
  0xf5, 0x40, 0x4d, 0xbc, 0x4a, 0xb5, 0xd5, 0x3b, 0x87, 0x42, 0x77, 0xb5,
  0x60, 0x3a, 0xc3, 0xc8, 0xb8, 0xb3, 0x44, 0xbb, 0x96, 0xc5, 0xdb, 0xc2,
  0x0b, 0xbc, 0x48, 0xc0, 0xf0, 0x40, 0xbd, 0xb0, 0x44, 0xc0, 0x6f, 0xc1,
  0x81, 0x3a, 0xda, 0xa8, 0xdd, 0xc6, 0x04, 0xba, 0xc7, 0xb2, 0x35, 0xc4,
  0x03, 0x42, 0xc3, 0xbc, 0x20, 0xb9, 0x3d, 0xcb, 0x06, 0x3d, 0x60, 0xba,
  0x95, 0xaa, 0xed, 0xb6, 0xbe, 0x39, 0x57, 0xc0, 0xd3, 0x3b, 0xb0, 0x43,
  0x8f, 0xc4, 0x65, 0xaa, 0x7c, 0x40, 0x54, 0xc7, 0xbf, 0x34, 0x5a, 0x38,
  0x80, 0x3e, 0x57, 0xc7, 0xf8, 0xbf, 0xe3, 0xbe, 0x95, 0xc3, 0x8c, 0x41,
  0xd5, 0xba, 0x69, 0xbb, 0x02, 0x9e, 0x1f, 0xb4, 0x73, 0xc4, 0x81, 0xc4,
  0x2b, 0x38, 0xe1, 0x34, 0xd8, 0xba, 0x5e, 0xc0, 0xaf, 0xbf, 0x60, 0x3d,
  0xd9, 0x2d, 0x68, 0x38, 0xe7, 0xc3, 0x70, 0xb9, 0xe5, 0x39, 0x92, 0xbc,
  0x2d, 0xa8, 0x9f, 0x3a, 0x21, 0xb3, 0xca, 0x37, 0xe6, 0x3c, 0xf6, 0xbd,
  0xcf, 0x2e, 0xce, 0xbc, 0x76, 0xbd, 0x43, 0x37, 0x1d, 0xbe, 0x83, 0x2b,
  0xf7, 0x3c, 0xa8, 0x38, 0x4b, 0x3c, 0xc3, 0x38, 0x0d, 0x3b, 0x1a, 0x38,
  0x55, 0xbc, 0x30, 0x28, 0x14, 0xc2, 0xa5, 0xbd, 0xa4, 0xb9, 0xa9, 0x40,
  0x3c, 0xa4, 0xc0, 0xb3, 0x1c, 0xc5, 0x8b, 0xc6, 0x97, 0xb9, 0x64, 0x38,
  0x7b, 0xae, 0x1b, 0xbe, 0xa9, 0xb1, 0xe9, 0x42, 0x0e, 0x32, 0x20, 0xc4,
  0xc5, 0x31, 0x7a, 0xbe, 0xe3, 0xbf, 0x6d, 0xb7, 0xef, 0x3b, 0x48, 0x3a,
  0xfc, 0x3e, 0x93, 0x34, 0x79, 0xbc, 0xb3, 0xca, 0x3e, 0x39, 0x66, 0x2e,
  0x2e, 0x3f, 0xa0, 0x2f, 0xba, 0xb4, 0x9c, 0xb9, 0xa7, 0x32, 0xff, 0xbe,
  0xe0, 0xaa, 0xcc, 0x36, 0xb3, 0x38, 0x64, 0xc2, 0xaf, 0xc0, 0x46, 0xba,
  0x0d, 0xbd, 0x5a, 0x32, 0xeb, 0xb2, 0x08, 0x3f, 0xd9, 0xb6, 0xb4, 0x41,
  0xbb, 0xc2, 0x7e, 0xb8, 0xc8, 0xbf, 0x3d, 0xc8, 0x2d, 0xb7, 0x52, 0xba,
  0x65, 0x44, 0x13, 0xc9, 0xde, 0x38, 0x3d, 0x45, 0xf1, 0xbf, 0x1e, 0xb4,
  0x6c, 0x3e, 0x97, 0xc3, 0xbc, 0x3b, 0xc4, 0x2a, 0xa4, 0x31, 0xcc, 0xb4,
  0xb4, 0x34, 0xca, 0xc1, 0xd6, 0x3c, 0x03, 0x38, 0xf5, 0x3b, 0x18, 0xbf,
  0xb4, 0x24, 0xa3, 0xc1, 0x59, 0xbd, 0xbd, 0xa9, 0x2a, 0x38, 0xf7, 0xc4,
  0x67, 0x41, 0x90, 0x36, 0xc2, 0x40, 0x01, 0xbc, 0x25, 0x42, 0x59, 0xbc,
  0xcc, 0x43, 0x39, 0xbc, 0x6c, 0x40, 0x1b, 0x38, 0x27, 0xc4, 0x67, 0x42,
  0xe8, 0xc3, 0x90, 0x45, 0x0a, 0x2f, 0x58, 0x2e, 0xb9, 0xc2, 0x82, 0x37,
  0x79, 0x31, 0xf2, 0xae, 0x7f, 0xc0, 0xcd, 0x34, 0x57, 0xb5, 0xbf, 0xc3,
  0x93, 0xb7, 0x49, 0x33, 0xa6, 0xc6, 0x42, 0xc1, 0xcb, 0xbb, 0x42, 0xb6,
  0x99, 0xbf, 0x5c, 0xbd, 0x7b, 0x29, 0x12, 0xb0, 0xa4, 0xbd, 0x39, 0xc5,
  0x95, 0xb8, 0x97, 0x3d, 0xb8, 0x3f, 0x7f, 0xbc, 0xe5, 0xca, 0x2a, 0x2d,
  0xdd, 0x3d, 0x79, 0x32, 0xbd, 0xb9, 0x94, 0xbd, 0xcc, 0xba, 0x32, 0x26,
  0xd1, 0xbc, 0x66, 0x32, 0xab, 0x42, 0xf3, 0xad, 0x32, 0x3c, 0xa6, 0xba,
  0xb8, 0x35, 0x09, 0x3a, 0x84, 0xb9, 0x5b, 0xbe, 0x4b, 0x3f, 0xe9, 0xc5,
  0x24, 0xac, 0x3c, 0x42, 0x4d, 0x3c, 0x3e, 0xbf, 0x62, 0xb0, 0x8c, 0xb5,
  0xe6, 0xbc, 0x06, 0xbb, 0x9b, 0xb9, 0x30, 0xb0, 0x6e, 0xc2, 0x32, 0xb8,
  0xc5, 0xbb, 0xdd, 0xbb, 0x27, 0x47, 0x52, 0xbc, 0x35, 0x38, 0xee, 0xc4,
  0xea, 0xb8, 0x8f, 0xb0, 0xf6, 0xab, 0x2f, 0x1c, 0x9b, 0x3b, 0xa3, 0x31,
  0x63, 0xad, 0x1c, 0x41, 0x40, 0x37, 0x34, 0xbe, 0x8d, 0x3a, 0xce, 0xb3,
  0xac, 0xb4, 0x72, 0x42, 0x21, 0x36, 0x2d, 0xba, 0xb4, 0x34, 0x1e, 0xc7,
  0x43, 0x39, 0x7b, 0xb8, 0x4b, 0x3d, 0x4c, 0xb6, 0xc1, 0x39, 0x72, 0xc9,
  0xa4, 0x35, 0xf3, 0xb9, 0x3c, 0xc6, 0xc3, 0x38, 0xcf, 0xbc, 0x35, 0x33,
  0xb2, 0x3b, 0x33, 0x39, 0x77, 0xc3, 0x94, 0xbc, 0x1e, 0xbf, 0x68, 0xb3,
  0xed, 0xc2, 0x9c, 0xbc, 0x0e, 0xbd, 0x05, 0xbb, 0xc6, 0xba, 0xb0, 0x40,
  0x19, 0xbd, 0xac, 0xbb, 0x6c, 0x37, 0xcc, 0xb8, 0xe5, 0x35, 0xc8, 0x34,
  0x48, 0xbf, 0x1b, 0xb4, 0x21, 0xc1, 0x3e, 0xc4, 0x5e, 0xbc, 0x0e, 0xc0,
  0x39, 0xc9, 0x22, 0xbc, 0x52, 0xbd, 0x57, 0x40, 0x21, 0x3b, 0x22, 0xbb,
  0x19, 0xc2, 0x43, 0x3e, 0x77, 0x37, 0x15, 0xcc, 0x01, 0xbc, 0x0a, 0x35,
  0xed, 0x40, 0xe2, 0xc4, 0xad, 0xa8, 0x58, 0xb6, 0xb6, 0xc0, 0x09, 0xb8,
  0x6d, 0x2c, 0xf6, 0x37, 0x9f, 0x3d, 0xb7, 0x3a, 0xf3, 0x3a, 0xc9, 0x32,
  0x58, 0xb0, 0x37, 0xb9, 0x1c, 0xbd, 0xfb, 0x3a, 0x9f, 0xba, 0x0d, 0x39,
  0x21, 0xb8, 0xe0, 0x33, 0xbd, 0xaa, 0xa9, 0x38, 0xc5, 0xc6, 0x6e, 0x3a,
  0x48, 0x40, 0xb9, 0xba, 0x6e, 0xbf, 0xdb, 0x34, 0x66, 0xad, 0x15, 0x37,
  0xfc, 0xb7, 0x2b, 0x38, 0x8f, 0x2f, 0xfa, 0x38, 0xf9, 0x32, 0xa2, 0xbe,
  0x62, 0xb2, 0xa1, 0xc2, 0x2f, 0x2e, 0x8b, 0xc1, 0x4c, 0xc5, 0xe6, 0x38,
  0x91, 0xc3, 0x2e, 0x45, 0xd4, 0xc4, 0x31, 0xb8, 0xe7, 0xc0, 0xa0, 0xc2,
  0x32, 0x38, 0x09, 0xc6, 0xf5, 0xba, 0x2c, 0xae, 0xf1, 0x28, 0xb7, 0x35,
  0x08, 0xb9, 0xb6, 0xc0, 0x65, 0xb9, 0xbf, 0xba, 0xad, 0xca, 0x69, 0x2d,
  0xc1, 0x40, 0x34, 0xb4, 0x9a, 0xc1, 0x65, 0xa4, 0x23, 0x9b, 0xcd, 0xb3,
  0x41, 0xc2, 0x70, 0x40, 0x64, 0xb5, 0xef, 0xbd, 0xb7, 0xb5, 0x5a, 0xbd,
  0xe4, 0xc1, 0x68, 0x3c, 0xbf, 0xab, 0xae, 0x30, 0xdb, 0x3d, 0x4d, 0x2e,
  0x15, 0x37, 0x73, 0x41, 0x65, 0x36, 0x13, 0xc2, 0x57, 0x42, 0xf5, 0xad,
  0x46, 0x29, 0xfe, 0x43, 0x88, 0xb7, 0x13, 0x35, 0x6b, 0xc8, 0x53, 0x40,
  0x55, 0xc0, 0xd7, 0xc7, 0x98, 0xb9, 0x9f, 0x3c, 0x65, 0x3e, 0x5b, 0x38,
  0x52, 0xc3, 0x42, 0xb5, 0x62, 0xb9, 0x69, 0xc4, 0xea, 0xbc, 0xb3, 0x38,
  0x8a, 0xc8, 0x15, 0x38, 0x93, 0xbf, 0xb8, 0x44, 0xc0, 0xa0, 0x00, 0x3c,
  0xe4, 0xae, 0x47, 0x40, 0x60, 0xc0, 0xed, 0x47, 0x14, 0xc2, 0xc7, 0x4a,
  0x4a, 0xc4, 0x6d, 0xb9, 0xb0, 0x3c, 0xb4, 0xb7, 0x39, 0x31, 0x5a, 0x40,
  0x75, 0x3c, 0x3d, 0xb3, 0xfd, 0xc5, 0x6d, 0xc7, 0x86, 0x41, 0xe9, 0x40,
  0xdd, 0x3a, 0x8d, 0xb6, 0x70, 0x43, 0x73, 0xc4, 0x5f, 0xbc, 0x84, 0xbe,
  0x88, 0xbc, 0xb7, 0xb9, 0x33, 0xb8, 0x3c, 0xc7, 0x3d, 0xbd, 0x91, 0x3e,
  0xa7, 0x34, 0x4a, 0xb8, 0x87, 0xbb, 0x2f, 0x3c, 0xf1, 0xbd, 0x39, 0xa6,
  0x90, 0xb3, 0xb9, 0xb5, 0x36, 0x39, 0xcd, 0xb1, 0x27, 0xbb, 0x9a, 0xbf,
  0x36, 0x46, 0x75, 0xc1, 0x4b, 0x36, 0x2f, 0xb9, 0xd8, 0x2d, 0x3a, 0x40,
  0x73, 0x3c, 0x29, 0xc5, 0x81, 0x41, 0x2f, 0x32, 0x75, 0x2f, 0xfb, 0x40,
  0x4c, 0x40, 0x97, 0x3c, 0xb5, 0xb9, 0xbc, 0x40, 0xcf, 0xc0, 0x8b, 0x31,
  0x37, 0xbd, 0x14, 0x3d, 0x3c, 0x39, 0xf2, 0xc7, 0x10, 0xc4, 0x4a, 0xbb,
  0xc7, 0x3f, 0x73, 0xbd, 0x5e, 0x3d, 0x7c, 0xba, 0x45, 0x34, 0x7e, 0xba,
  0xd1, 0x36, 0xa5, 0xc3, 0x73, 0x38, 0xa4, 0xc1, 0xe3, 0x3c, 0x36, 0xb1,
  0x66, 0xc6, 0x93, 0x35, 0x61, 0xba, 0x6f, 0x49, 0x00, 0xc2, 0x29, 0x39,
  0xb8, 0xc1, 0x90, 0x99, 0x33, 0xc3, 0x1b, 0xbe, 0x10, 0xc0, 0x49, 0xc3,
  0xd2, 0x37, 0xae, 0x3b, 0xc1, 0xbb, 0xe2, 0xc3, 0xb7, 0xb6, 0x0d, 0xbc,
  0xa0, 0x40, 0x8d, 0xc1, 0xa3, 0xbb, 0xd3, 0xc8, 0xf4, 0x36, 0xbf, 0x38,
  0x2a, 0xbf, 0xa9, 0xb1, 0x1a, 0xc2, 0x99, 0xc9, 0x80, 0xbc, 0x5d, 0x2f,
  0xdc, 0x42, 0x76, 0xb9, 0x1d, 0x3c, 0x4f, 0xc3, 0x23, 0xc8, 0xbc, 0x2d,
  0xcf, 0x40, 0x27, 0xbf, 0x23, 0xc7, 0x8f, 0xaa, 0x6f, 0x3d, 0xaf, 0xc0,
  0xd5, 0x33, 0xfe, 0xc1, 0xed, 0x43, 0x64, 0x3b, 0x53, 0xbe, 0xb5, 0x3c,
  0x6f, 0x34, 0xde, 0xbe, 0xf9, 0x36, 0x80, 0x3e, 0x8c, 0x2e, 0xa9, 0xcc,
  0xbc, 0x3d, 0x73, 0xd0, 0x65, 0xcb, 0xad, 0xb9, 0xc6, 0x38, 0x90, 0x2f,
  0x31, 0x28, 0x0e, 0xbe, 0x5c, 0x3e, 0x19, 0x40, 0xa2, 0x3b, 0x21, 0x34,
  0xde, 0x40, 0x1d, 0x40, 0xc2, 0xbd, 0x8e, 0x21, 0x19, 0x3f, 0x23, 0xb9,
  0x6a, 0xa9, 0x5d, 0xad, 0x90, 0xb5, 0x9a, 0xb5, 0xe8, 0x2b, 0x51, 0xbc,
  0xe4, 0xb3, 0xa7, 0x40, 0x71, 0x31, 0xce, 0x39, 0xbd, 0xb0, 0x55, 0xbd,
  0xcf, 0xb8, 0x3a, 0x37, 0x60, 0xab, 0x35, 0x39, 0xa2, 0xaa, 0xee, 0x3d,
  0x8b, 0x3a, 0x9d, 0x38, 0xa4, 0xc6, 0x28, 0xb5, 0xc0, 0xb4, 0xd9, 0xb9,
  0x31, 0x36, 0x24, 0xc0, 0x1f, 0x40, 0x4f, 0x3d, 0x23, 0x3c, 0x3e, 0x35,
  0x4c, 0x3a, 0xa1, 0x3c, 0xf4, 0x2e, 0x2f, 0xc3, 0x42, 0x3d, 0xb1, 0xc3,
  0xeb, 0xb7, 0x6b, 0x3c, 0x63, 0x40, 0xfa, 0x39, 0x1b, 0xc4, 0xa5, 0xc7,
  0x3e, 0xb4, 0xf3, 0xcc, 0xe9, 0x40, 0x8f, 0x2d, 0xbf, 0x3a, 0x75, 0xc6,
  0x2d, 0x30, 0xf4, 0xac, 0x1c, 0xb9, 0xd6, 0x40, 0x8e, 0xb5, 0x27, 0xbf,
  0xd7, 0xb7, 0xb3, 0x33, 0x45, 0xc2, 0x47, 0xb4, 0x71, 0xc0, 0xbb, 0x40,
  0x2c, 0xb4, 0xb8, 0x31, 0xf9, 0x38, 0x15, 0xb5, 0xa2, 0xc4, 0x89, 0xaf,
  0xe9, 0xb4, 0xd5, 0xc8, 0xe7, 0xb8, 0xa9, 0xbb, 0x95, 0xc5, 0x58, 0xb8,
  0xf0, 0x34, 0x82, 0xbf, 0x00, 0xa2, 0x12, 0xbe, 0x96, 0xbf, 0xab, 0xc4,
  0xd7, 0xc4, 0x1d, 0xc7, 0x71, 0x3a, 0xc4, 0xb5, 0x5d, 0xc1, 0x00, 0xcc,
  0x09, 0xbe, 0x43, 0x3a, 0xa0, 0xd0, 0xd1, 0xba, 0xc7, 0x37, 0xc0, 0xb0,
  0x84, 0xbf, 0x45, 0x3b, 0x9f, 0x45, 0x0e, 0x3c, 0xc3, 0xb4, 0x8b, 0xb0,
  0x1f, 0xa9, 0x01, 0xad, 0xa4, 0xb5, 0xe4, 0xbf, 0xf3, 0x3f, 0x6b, 0x3f,
  0xd3, 0x3c, 0x26, 0x41, 0x0d, 0x3c, 0xff, 0xb8, 0xeb, 0xba, 0x99, 0x41,
  0xb6, 0x2e, 0x02, 0xc2, 0x40, 0x38, 0x7f, 0x3b, 0xb5, 0x3e, 0x47, 0xb5,
  0x75, 0xb2, 0x58, 0xa9, 0x7a, 0xbb, 0x4a, 0xc0, 0xfe, 0x3a, 0x71, 0xb8,
  0xf0, 0xad, 0x44, 0x42, 0x5f, 0xc4, 0xc4, 0xcc, 0x41, 0xbb, 0xea, 0x30,
  0x72, 0xbf, 0x1f, 0x41, 0x9c, 0x39, 0x36, 0xb4, 0x9a, 0xb6, 0xba, 0xad,
  0x95, 0x34, 0xf3, 0x33, 0xf6, 0x36, 0xae, 0x31, 0x1f, 0xa5, 0x2f, 0x2f,
  0x82, 0x33, 0xa5, 0xb4, 0x91, 0x36, 0x09, 0xab, 0x1e, 0x21, 0x0e, 0x2a,
  0xa4, 0xb8, 0x5b, 0xa5, 0xa5, 0xbd, 0xdd, 0x3c, 0x56, 0x39, 0x5f, 0xc2,
  0xf3, 0xbc, 0xe3, 0x3d, 0x48, 0xc0, 0x9e, 0xb8, 0x3f, 0x40, 0xf3, 0x34,
  0xca, 0xb4, 0xe5, 0xbd, 0x94, 0x32, 0xd4, 0x3a, 0x32, 0xc4, 0x6d, 0xc0,
  0x11, 0xbd, 0xd7, 0xbe, 0x73, 0xbb, 0x92, 0xc1, 0x3b, 0xbd, 0xad, 0x24,
  0x86, 0xc0, 0xfd, 0xc6, 0xed, 0xb4, 0x76, 0x41, 0xfb, 0xc3, 0xd6, 0x36,
  0xf7, 0x3d, 0xbe, 0x3a, 0x48, 0xb5, 0xbd, 0x38, 0xb6, 0xac, 0x24, 0xbb,
  0x9f, 0xc4, 0x45, 0xb2, 0xaf, 0xaf, 0xac, 0xb4, 0xb1, 0xc9, 0x3b, 0x2f,
  0xf1, 0x3b, 0x78, 0xc2, 0x66, 0x34, 0x69, 0x1e, 0xc6, 0xc0, 0x14, 0xae,
  0xa4, 0xca, 0xb4, 0xba, 0x36, 0xc7, 0xd8, 0xb9, 0xb6, 0xc4, 0x97, 0xb5,
  0x92, 0x30, 0x30, 0xb9, 0x7b, 0xae, 0x4f, 0x3f, 0x6e, 0x3b, 0x62, 0xc3,
  0x81, 0xc0, 0xe4, 0xc5, 0xcb, 0xb9, 0xc7, 0xc4, 0x43, 0x40, 0xcd, 0xbd,
  0x16, 0xbf, 0xe4, 0xc0, 0x4b, 0x35, 0x62, 0x33, 0xef, 0xca, 0x31, 0x37,
  0xca, 0xb8, 0x9c, 0xca, 0xf5, 0xa3, 0x37, 0xa5, 0xab, 0xcc, 0x6a, 0x3d,
  0xeb, 0xc1, 0x3a, 0x99, 0xfd, 0xc5, 0x0c, 0xba, 0xf3, 0xbc, 0xc3, 0x3e,
  0xbe, 0xbf, 0x5d, 0x39, 0x30, 0xc0, 0xa5, 0xb0, 0xab, 0xb1, 0x42, 0x3c,
  0x0f, 0xb9, 0xf0, 0x38, 0xdd, 0x36, 0x3a, 0xc4, 0x5c, 0x42, 0xbf, 0x44,
  0x07, 0xc4, 0x2f, 0xc1, 0x31, 0x2e, 0xa0, 0xb6, 0x81, 0x42, 0x82, 0xc4,
  0x40, 0x38, 0x8a, 0xbe, 0x7e, 0x30, 0xcd, 0xc8, 0x47, 0xc8, 0x15, 0x4e,
  0x43, 0x35, 0x1b, 0x2c, 0x8d, 0x28, 0x26, 0xc3, 0xb3, 0x34, 0xe4, 0xb8,
  0x1f, 0xc1, 0x09, 0x3a, 0xcf, 0x37, 0x30, 0x41, 0xda, 0xba, 0x31, 0xc4,
  0xd1, 0x2f, 0xc7, 0xc2, 0x8e, 0x3e, 0x30, 0x32, 0x42, 0xbe, 0xef, 0xbc,
  0xf5, 0x38, 0xb6, 0xc0, 0x71, 0x36, 0x67, 0xbb, 0x25, 0xc5, 0xee, 0xbd,
  0xbe, 0xb9, 0x40, 0xc5, 0x0f, 0xbd, 0x0a, 0xb8, 0x53, 0x3f, 0xd1, 0x2d,
  0xbb, 0xc9, 0xe7, 0x34, 0xa3, 0xc9, 0xab, 0xac, 0x5f, 0xc4, 0x6e, 0xb9,
  0xf8, 0x43, 0xfc, 0xbc, 0x83, 0xbe, 0x0a, 0x31, 0x33, 0xb9, 0xd4, 0xc4,
  0xc4, 0x40, 0x45, 0x32, 0xeb, 0xc0, 0xb3, 0xca, 0x47, 0x3a, 0xfa, 0xc0,
  0x22, 0xbc, 0x42, 0xb7, 0xf1, 0xba, 0x9e, 0x14, 0x05, 0xbd, 0x12, 0xbc,
  0x60, 0x3e, 0xd8, 0xbf, 0x04, 0xc1, 0x94, 0xbd, 0x38, 0xc1, 0x8a, 0xc4,
  0xe7, 0xc2, 0x5f, 0xbf, 0x35, 0x33, 0xa2, 0xc5, 0x82, 0xb6, 0x6d, 0x38,
  0x8c, 0xc3, 0xd9, 0x32, 0xf5, 0x40, 0x2c, 0xb9, 0x07, 0xbc, 0x0a, 0xb5,
  0x21, 0xb6, 0xfd, 0xbe, 0x34, 0xbf, 0x79, 0xc4, 0x23, 0xb8, 0xc6, 0x34,
  0xf6, 0x3e, 0x28, 0x32, 0x26, 0xbd, 0x56, 0xce, 0x9e, 0x3b, 0x47, 0xbe,
  0x98, 0x33, 0x6d, 0x29, 0x60, 0xba, 0x3f, 0xab, 0x2a, 0x38, 0x8f, 0x2a,
  0xc2, 0xc9, 0x80, 0xbe, 0x24, 0xbe, 0xf7, 0x41, 0x52, 0xc1, 0xf0, 0x26,
  0x4c, 0xc5, 0x9c, 0x38, 0xd4, 0x3b, 0x18, 0xaf, 0x20, 0xbe, 0x58, 0xbc,
  0x04, 0xb6, 0xe3, 0xc0, 0x54, 0xb4, 0xb1, 0xb9, 0x4d, 0xc6, 0x82, 0xc3,
  0x50, 0x37, 0x49, 0xbf, 0x20, 0x36, 0x85, 0xbc, 0x1d, 0xbb, 0x81, 0xc8,
  0xc1, 0x48, 0xc9, 0xca, 0xb9, 0x43, 0x43, 0xb2, 0x40, 0x37, 0x0d, 0xbd,
  0xc7, 0xbd, 0x72, 0x45, 0x35, 0xc4, 0x15, 0xc8, 0x59, 0xb8, 0xe0, 0x30,
  0xee, 0x3f, 0x15, 0x48, 0x19, 0xb8, 0x0d, 0xb2, 0x55, 0x37, 0x2b, 0x2b,
  0x44, 0x35, 0x2d, 0xc0, 0xe5, 0xc0, 0x43, 0xae, 0xa2, 0xc9, 0x3e, 0xb2,
  0xd6, 0xc1, 0xff, 0x44, 0x8c, 0x24, 0x3a, 0x32, 0x87, 0xbc, 0xef, 0xbc,
  0x59, 0xba, 0xba, 0x38, 0x89, 0xbb, 0xec, 0x34, 0x78, 0xbc, 0x16, 0x36,
  0x55, 0xa1, 0x9e, 0xac, 0x38, 0x36, 0x5a, 0x41, 0x83, 0xc6, 0xd9, 0xb8,
  0xd9, 0x35, 0x75, 0xc0, 0x05, 0x3e, 0xa9, 0x35, 0xe5, 0xc2, 0xd2, 0xba,
  0x21, 0x37, 0xae, 0xbb, 0xfd, 0x41, 0x34, 0xb6, 0xa3, 0xb8, 0xfa, 0xbb,
  0x46, 0x2a, 0xf7, 0xb7, 0xb4, 0xb5, 0x74, 0x39, 0x33, 0xc8, 0xd9, 0x44,
  0xf6, 0xb5, 0xd4, 0x42, 0xa9, 0xc2, 0x81, 0xb8, 0x39, 0xb8, 0x35, 0xbe,
  0x7e, 0xb7, 0xbf, 0x36, 0x1a, 0x3f, 0xd2, 0x3c, 0x37, 0x41, 0x2d, 0x32,
  0x1a, 0x39, 0x49, 0x31, 0x2f, 0x49, 0x82, 0xb4, 0x79, 0xc0, 0x1d, 0x46,
  0x71, 0x3c, 0x5a, 0xb4, 0xc9, 0x3e, 0xeb, 0xb9, 0x09, 0x44, 0x55, 0x43,
  0x5c, 0xbd, 0x3d, 0x3f, 0xee, 0xbd, 0x92, 0xbd, 0x53, 0xb6, 0x13, 0x40,
  0x15, 0xb8, 0x98, 0x46, 0xe0, 0xb3, 0xf8, 0xbe, 0xf4, 0x40, 0x74, 0x45,
  0xe0, 0xc1, 0x87, 0x34, 0x68, 0xc4, 0xe7, 0xb6, 0x0a, 0xbf, 0x5c, 0xc3,
  0x25, 0x32, 0x6a, 0xb2, 0x48, 0xcc, 0xfa, 0x41, 0xaf, 0xbc, 0xf9, 0x40,
  0x35, 0xb8, 0x7b, 0xb4, 0x1c, 0x44, 0x2c, 0x39, 0xf1, 0x39, 0x3d, 0xb0,
  0x63, 0xaa, 0xcf, 0xb3, 0x11, 0xbe, 0x69, 0xc5, 0x9f, 0xbc, 0x53, 0x3d,
  0x33, 0x40, 0x39, 0x39, 0x4b, 0xc0, 0x41, 0xc1, 0x5c, 0xc1, 0x1c, 0x39,
  0x15, 0x38, 0x30, 0x45, 0x0e, 0xc0, 0xda, 0x4c, 0xd9, 0xc6, 0x98, 0x38,
  0xd3, 0x3b, 0x89, 0xbe, 0x27, 0xb6, 0x78, 0xb0, 0x94, 0x36, 0x37, 0xc2,
  0x88, 0x3a, 0x55, 0x44, 0x2a, 0xc3, 0x92, 0xc9, 0xcb, 0xae, 0x15, 0xba,
  0x43, 0x33, 0xd6, 0xb3, 0xae, 0xbe, 0x58, 0xbc, 0x3b, 0xc1, 0x0c, 0x35,
  0xcd, 0x3e, 0xd5, 0x3e, 0x6d, 0xc2, 0x52, 0x38, 0x18, 0x36, 0x21, 0xa5,
  0x91, 0xb2, 0x8c, 0xb1, 0x9e, 0xbe, 0x97, 0xbc, 0x6e, 0xb4, 0x3a, 0xbb,
  0x78, 0x3a, 0x50, 0x31, 0x2f, 0xb8, 0x64, 0xc0, 0x1e, 0x44, 0x4b, 0x3d,
  0xe0, 0xb8, 0xef, 0xb9, 0xd8, 0xbc, 0xaf, 0x40, 0x4e, 0x40, 0xb9, 0xa9,
  0xf4, 0xb0, 0xd1, 0x37, 0x20, 0xbe, 0x28, 0xb5, 0x9c, 0x45, 0xfb, 0xae,
  0x5d, 0xc5, 0x39, 0x40, 0xbd, 0xae, 0xcc, 0x3d, 0x59, 0x3c, 0xea, 0xb9,
  0xb3, 0xb8, 0xf2, 0xc4, 0x47, 0xbf, 0x48, 0xc5, 0xbb, 0xb7, 0x58, 0x3e,
  0xd3, 0x37, 0xd6, 0x3d, 0x10, 0x30, 0x16, 0xb8, 0xfc, 0xbc, 0x5b, 0x3e,
  0x56, 0x39, 0xb8, 0x32, 0x8f, 0xc4, 0x5d, 0xae, 0x4f, 0xbf, 0x30, 0x31,
  0xdb, 0xc0, 0x06, 0x38, 0xf5, 0x3a, 0x85, 0x36, 0x01, 0x3d, 0xfc, 0x35,
  0xcc, 0xbc, 0x1c, 0xc7, 0xaf, 0xb7, 0xbe, 0x43, 0x68, 0x31, 0x23, 0xb9,
  0x5c, 0xb8, 0xb6, 0xc7, 0x4e, 0x2f, 0x82, 0xc3, 0x61, 0x43, 0xc6, 0xb8,
  0x51, 0x3d, 0x52, 0x44, 0x21, 0x36, 0xce, 0xa4, 0x75, 0xb1, 0xb9, 0x30,
  0x14, 0x3b, 0x03, 0xcf, 0x6c, 0xb8, 0x88, 0xba, 0x43, 0x49, 0x83, 0xc4,
  0xb4, 0xbc, 0x74, 0xcb, 0x34, 0x38, 0xf0, 0xbb, 0xe9, 0xb4, 0x08, 0x34,
  0x10, 0x41, 0x73, 0x39, 0x0b, 0xbe, 0x00, 0xb7, 0x86, 0xb1, 0x0c, 0xc5,
  0x84, 0xb6, 0xb9, 0xc0, 0xa5, 0x3e, 0x9b, 0xc9, 0x0f, 0xb9, 0x98, 0xc4,
  0x98, 0xb1, 0xdb, 0xc1, 0x51, 0xc0, 0xe5, 0x42, 0xce, 0x44, 0x2a, 0x4a,
  0xbb, 0xb0, 0xad, 0x36, 0x60, 0xc2, 0x06, 0x3f, 0xef, 0x3c, 0xdf, 0xc1,
  0xf5, 0x36, 0x20, 0x43, 0xe5, 0xc0, 0x26, 0xb8, 0xf4, 0xc0, 0x7d, 0xbf,
  0x68, 0x37, 0x61, 0x34, 0xc2, 0x36, 0xab, 0x3a, 0x8f, 0x40, 0x58, 0xb4,
  0x16, 0x3c, 0xaa, 0x34, 0x84, 0x3f, 0x97, 0xbe, 0xc3, 0xb2, 0x2d, 0x38,
  0x14, 0xbc, 0x6e, 0xb2, 0xd1, 0x2b, 0xd2, 0x2f, 0x03, 0x39, 0xab, 0x3c,
  0x78, 0x35, 0x3c, 0x2d, 0xef, 0x34, 0xb9, 0xbf, 0x8f, 0x2a, 0xe3, 0x3d,
  0x86, 0xbc, 0x55, 0xc1, 0xaa, 0x41, 0x88, 0x34, 0x17, 0x35, 0x34, 0x32,
  0xca, 0xbd, 0x4f, 0xbe, 0x08, 0xc5, 0xa3, 0xb5, 0x9c, 0x3d, 0xb8, 0x39,
  0x51, 0x43, 0x2c, 0x35, 0xf3, 0xb2, 0x8a, 0xba, 0x8d, 0x3c, 0x8d, 0xb4,
  0xdc, 0xc2, 0xe8, 0x36, 0xd8, 0xc4, 0xda, 0xc0, 0x7c, 0xb3, 0x2e, 0xc6,
  0x35, 0x3a, 0x0c, 0xaf, 0x01, 0xb5, 0xd9, 0x2e, 0xa7, 0x38, 0x0c, 0xb4,
  0x4a, 0x3d, 0x76, 0xb6, 0xf8, 0xc6, 0x0f, 0x39, 0x97, 0xbc, 0x0f, 0x2f,
  0x8a, 0xcb, 0xcc, 0x37, 0xb5, 0x3e, 0x55, 0x41, 0x6f, 0xc4, 0x40, 0x38,
  0xa5, 0x3a, 0x8b, 0x2f, 0x42, 0xc4, 0xf4, 0x42, 0xdc, 0xc0, 0x51, 0xb6,
  0x14, 0xb6, 0xcb, 0x36, 0x43, 0xad, 0x2c, 0x3e, 0x9e, 0xb0, 0x34, 0x48,
  0xef, 0xbd, 0x91, 0xc0, 0x5e, 0xc0, 0x67, 0xc6, 0x7b, 0x3e, 0xe7, 0x43,
  0x10, 0xbe, 0xa9, 0xba, 0xd8, 0x3d, 0x2e, 0xca, 0x87, 0x35, 0x95, 0xba,
  0x8e, 0x44, 0xae, 0x3a, 0x99, 0x3b, 0x26, 0xb9, 0xcd, 0x3b, 0xaf, 0x3c,
  0x73, 0xc2, 0x35, 0x43, 0xcf, 0xb9, 0xad, 0x32, 0x9f, 0xc4, 0x27, 0xbd,
  0xc6, 0x33, 0x6b, 0x44, 0x85, 0xbe, 0x00, 0x3e, 0xee, 0x23, 0xec, 0x46,
  0x68, 0xb4, 0x28, 0xb7, 0xbc, 0xae, 0x4d, 0x3e, 0x48, 0xc0, 0x74, 0xc8,
  0x01, 0xc3, 0x47, 0xbe, 0x0a, 0xb7, 0x51, 0x26, 0xa1, 0x42, 0xfb, 0x3c,
  0xb7, 0x42, 0x95, 0x41, 0x90, 0xa6, 0xf8, 0xbe, 0x9b, 0xc5, 0x7f, 0xad,
  0x61, 0x43, 0x08, 0xb5, 0x25, 0x32, 0x4c, 0xae, 0x95, 0xc4, 0x46, 0x35,
  0x00, 0x3d, 0xa5, 0xc1, 0x58, 0x37, 0xc8, 0xb6, 0x40, 0xbd, 0x93, 0xc4,
  0x5b, 0xbc, 0xb1, 0xb8, 0xdc, 0xb8, 0x58, 0xb7, 0x40, 0xba, 0x87, 0x37,
  0x5b, 0x34, 0x18, 0xbc, 0x24, 0xb0, 0xa6, 0x33, 0xcd, 0xbe, 0x76, 0x3f,
  0x0a, 0x2e, 0xb9, 0xbd, 0x94, 0x40, 0x2c, 0xc1, 0xa8, 0xc6, 0x33, 0xa8,
  0xcd, 0x40, 0x7b, 0x38, 0x3f, 0x45, 0xe4, 0xbc, 0x2a, 0x2a, 0xe3, 0xb7,
  0x81, 0xb5, 0xa3, 0xbd, 0x3b, 0xc1, 0x69, 0x34, 0x12, 0xb0, 0xc1, 0xa5,
  0xd7, 0xb1, 0xa4, 0x3d, 0x56, 0xc7, 0x00, 0xbd, 0xc4, 0xbb, 0x78, 0xc7,
  0x84, 0x35, 0xdc, 0x32, 0x2d, 0xb4, 0x1b, 0xc0, 0x09, 0x33, 0x82, 0xc6,
  0x5c, 0xb2, 0x6e, 0x37, 0x43, 0x39, 0x26, 0xc0, 0x3d, 0xc1, 0x87, 0x2d,
  0xab, 0x3d, 0x48, 0x35, 0x94, 0x48, 0x67, 0x33, 0x23, 0xc0, 0x04, 0x48,
  0x7c, 0xbd, 0x37, 0xbb, 0x69, 0x39, 0x43, 0xb2, 0x3b, 0x43, 0x6c, 0xbd,
  0x28, 0xb0, 0x6c, 0xba, 0x5e, 0x2d, 0x1c, 0x34, 0x31, 0x29, 0x37, 0xbe,
  0x49, 0xb7, 0x42, 0x43, 0xe6, 0xbd, 0x56, 0xc7, 0x3c, 0xc0, 0x06, 0x43,
  0x3e, 0xac, 0x0d, 0xc2, 0x93, 0xb4, 0x6d, 0xbe, 0x2c, 0xb8, 0x1b, 0x4a,
  0x4a, 0x3b, 0x61, 0xb9, 0xb7, 0x41, 0x99, 0x30, 0x15, 0xbe, 0x6f, 0xc1,
  0x35, 0x39, 0xf9, 0xbb, 0x93, 0x40, 0x70, 0xc0, 0x63, 0xc1, 0x3b, 0xb8,
  0x27, 0x38, 0xb8, 0xbc, 0x94, 0xc0, 0xc0, 0xa0, 0x07, 0xc4, 0x9b, 0x2c,
  0xb5, 0x35, 0x10, 0xc7, 0xf9, 0xb3, 0x20, 0xb8, 0x14, 0x3b, 0x0c, 0xbc,
  0x0e, 0x3c, 0xf0, 0xc0, 0x93, 0x4b, 0x8b, 0x44, 0x62, 0xbf, 0xe0, 0x31,
  0x70, 0x3b, 0x42, 0xbc, 0x25, 0x3d, 0xef, 0xb3, 0x95, 0xb8, 0x9a, 0x3a,
  0xed, 0x40, 0x26, 0x48, 0x35, 0xc0, 0xee, 0xc4, 0xcb, 0xb8, 0x68, 0x2e,
  0x55, 0xbe, 0xb1, 0x3a, 0x96, 0xba, 0x99, 0x39, 0xd5, 0x40, 0x48, 0x36,
  0x8f, 0x36, 0xbc, 0xb8, 0xc4, 0xbe, 0x07, 0x38, 0xab, 0xb0, 0xe1, 0x3b,
  0x09, 0x3d, 0x27, 0xbe, 0x65, 0x32, 0x37, 0x31, 0x1d, 0x23, 0x29, 0x38,
  0xe9, 0x38, 0xc6, 0x34, 0xdb, 0x3e, 0x7a, 0x3a, 0x07, 0x3c, 0x09, 0xc0,
  0x98, 0xba, 0x5e, 0x38, 0xa6, 0xba, 0xe9, 0x36, 0x57, 0xb8, 0xe4, 0xc0,
  0x69, 0x40, 0xdb, 0x31, 0x09, 0x39, 0x13, 0x3d, 0xe6, 0x41, 0x61, 0x35,
  0x61, 0xbe, 0x98, 0xbc, 0x26, 0x3a, 0x39, 0x3c, 0xa5, 0xb8, 0xf4, 0xba,
  0x7b, 0x3d, 0x06, 0xc0, 0x62, 0x35, 0x67, 0xc2, 0xa1, 0x3e, 0x59, 0xb7,
  0x90, 0x38, 0x55, 0x3d, 0xfe, 0xb0, 0x89, 0xbc, 0xb3, 0xba, 0x6a, 0xc3,
  0xd9, 0xba, 0xec, 0x3a, 0x01, 0x39, 0xe7, 0x35, 0xf8, 0x48, 0x03, 0xb5,
  0xf5, 0x2c, 0x29, 0x48, 0x40, 0xb3, 0xcc, 0x37, 0xa2, 0x41, 0x1d, 0xb1,
  0x83, 0x43, 0x9c, 0x36, 0x87, 0x38, 0xfd, 0xaf, 0xaa, 0x33, 0xf4, 0x3b,
  0xbd, 0x37, 0x05, 0xbf, 0xd5, 0xb0, 0xff, 0x40, 0x4d, 0x3f, 0x06, 0xc2,
  0xce, 0xc5, 0x4f, 0xc5, 0x82, 0xbb, 0x92, 0x45, 0x1d, 0x40, 0x6d, 0xb7,
  0x90, 0xbc, 0x21, 0x49, 0x51, 0x3a, 0x7f, 0xb2, 0x6c, 0x4d, 0x8e, 0xc3,
  0xc8, 0x2e, 0x0d, 0x49, 0xca, 0x34, 0x5e, 0x38, 0xef, 0x3b, 0x6c, 0x34,
  0x46, 0xc4, 0x74, 0xb0, 0xed, 0xbc, 0x25, 0x36, 0x41, 0xb4, 0x77, 0x3c,
  0xcc, 0xb9, 0x07, 0x3c, 0x6b, 0x44, 0xd9, 0x3a, 0x3e, 0xbc, 0x29, 0xc1,
  0xff, 0xb9, 0x45, 0xa7, 0x28, 0x3c, 0x23, 0x45, 0x33, 0x49, 0x00, 0x4d,
  0x89, 0x3c, 0x0f, 0xb7, 0x19, 0x33, 0x18, 0x3d, 0x48, 0x3b, 0xb5, 0xc7,
  0x1e, 0xb4, 0x14, 0xbd, 0xbe, 0x36, 0x19, 0xc4, 0x42, 0xc5, 0xf5, 0xc5,
  0x25, 0xb8, 0xe7, 0x39, 0x6f, 0xba, 0x1c, 0xc2, 0xa2, 0x3c, 0x31, 0x3c,
  0xbd, 0xb3, 0x1a, 0xb9, 0xe5, 0xbd, 0x24, 0xbf, 0x18, 0x37, 0x81, 0x31,
  0x1b, 0xb9, 0xea, 0x38, 0xbf, 0xba, 0x5b, 0x29, 0x85, 0x2f, 0xe9, 0x3f,
  0x1d, 0xb6, 0xce, 0xc0, 0xb0, 0xb3, 0x23, 0x3b, 0xff, 0xb4, 0x79, 0x41,
  0xb7, 0x34, 0x06, 0xc4, 0x39, 0xbc, 0x46, 0x3a, 0xd4, 0x3e, 0xeb, 0x3b,
  0x1b, 0x3e, 0x5f, 0xa4, 0x2c, 0x3f, 0x00, 0x2f, 0xde, 0x32, 0x6c, 0x31,
  0x5a, 0xbc, 0xbb, 0x37, 0xa0, 0x2d, 0x13, 0xbe, 0x41, 0x32, 0x6f, 0xbe,
  0x96, 0xb3, 0x94, 0x3b, 0xe6, 0xbc, 0x09, 0x3f, 0x95, 0xbf, 0x19, 0x33,
  0xea, 0xb5, 0x7f, 0xb8, 0x1a, 0x3d, 0x04, 0x40, 0x4b, 0x31, 0x8b, 0xb5,
  0xe1, 0x39, 0x7a, 0x3f, 0x75, 0xc7, 0x9d, 0xbb, 0x5d, 0xbc, 0x76, 0xbc,
  0x9d, 0xcb, 0x7d, 0xb5, 0xa5, 0xbc, 0xc4, 0xc8, 0x25, 0xb8, 0x89, 0x26,
  0x89, 0xb0, 0x4f, 0xac, 0x77, 0xb9, 0x76, 0x3c, 0x65, 0xc1, 0x77, 0xc0,
  0x38, 0xb9, 0xc5, 0x31, 0x12, 0x37, 0xf5, 0xbf, 0x5a, 0x38, 0xca, 0x3b,
  0x92, 0x3a, 0xf5, 0xaf, 0x5f, 0x38, 0xf5, 0xc9, 0x78, 0x35, 0x4f, 0x40,
  0x3a, 0xb8, 0xc4, 0xc0, 0xe1, 0xb3, 0x78, 0xca, 0x26, 0xbe, 0x6d, 0x38,
  0x26, 0x48, 0xe6, 0xb8, 0x51, 0xb9, 0x67, 0xb9, 0xca, 0x3a, 0x5f, 0x2c,
  0x35, 0xc6, 0x17, 0xc4, 0x5c, 0xc1, 0x37, 0x31, 0xa6, 0x39, 0xb2, 0xbd,
  0x15, 0x36, 0x6b, 0xc1, 0xb2, 0x40, 0xce, 0x3c, 0x39, 0xba, 0x08, 0x42,
  0xd4, 0xb1, 0xa6, 0x38, 0x22, 0xb7, 0xbd, 0x3c, 0xcb, 0xbd, 0x8f, 0xc4,
  0xe6, 0x3f, 0x90, 0xca, 0xb0, 0xc9, 0xa6, 0xb5, 0xaa, 0xbd, 0x56, 0xba,
  0x29, 0xc1, 0x06, 0xb9, 0x9d, 0xc8, 0x5c, 0xc5, 0x87, 0x35, 0x13, 0x44,
  0x90, 0xb6, 0x39, 0xce, 0x11, 0x1c, 0x1d, 0xb4, 0x67, 0x3e, 0x5d, 0xbc,
  0xff, 0xb8, 0x5f, 0x28, 0x75, 0x3d, 0xbb, 0x34, 0xbd, 0xbd, 0x42, 0x3f,
  0xf7, 0x34, 0xb2, 0xc0, 0x18, 0x3a, 0x47, 0x2e, 0x6a, 0xa4, 0x59, 0xb8,
  0xff, 0x39, 0xc3, 0xbf, 0x10, 0x25, 0x1b, 0xb7, 0x2c, 0x39, 0x8d, 0x32,
  0x1a, 0xb5, 0x61, 0xbd, 0x44, 0xc5, 0x19, 0x40, 0x43, 0x3e, 0xa9, 0xc1,
  0x52, 0xc0, 0x89, 0xc7, 0x03, 0xbf, 0xac, 0x34, 0x68, 0xc6, 0x55, 0x9d,
  0x63, 0xbe, 0xaa, 0x33, 0xfd, 0xbd, 0x40, 0xb6, 0x3b, 0xbe, 0x81, 0xb4,
  0x9b, 0x31, 0x30, 0x3d, 0x2e, 0x38, 0x7b, 0x32, 0x6f, 0x3e, 0xa7, 0xc4,
  0x6b, 0x38, 0x60, 0xc9, 0xde, 0xc4, 0x03, 0x3a, 0xec, 0x35, 0x38, 0xc5,
  0x74, 0xb9, 0xac, 0x38, 0xb1, 0xba, 0x45, 0xac, 0x0d, 0x3c, 0x0a, 0x2f,
  0x91, 0xbd, 0x32, 0xb2, 0x7a, 0xc4, 0x34, 0xb8, 0x2c, 0xc1, 0x47, 0xc1,
  0xd0, 0x3b, 0x6c, 0x22, 0x87, 0xb8, 0x4d, 0x32, 0x20, 0xbf, 0x21, 0xca,
  0x42, 0x38, 0x3e, 0xb3, 0xd8, 0x2e, 0xb0, 0x35, 0xcd, 0xbd, 0x04, 0xc5,
  0x75, 0x33, 0x16, 0xc4, 0x07, 0x42, 0x70, 0xbd, 0x04, 0xb8, 0xe5, 0x41,
  0x08, 0xc0, 0x6e, 0xbf, 0x96, 0x39, 0x04, 0x34, 0x26, 0xb8, 0xb0, 0xb9,
  0x25, 0xbd, 0xc0, 0x36, 0x83, 0xce, 0x86, 0xbe, 0xe2, 0xbd, 0x74, 0xb5,
  0x05, 0xb4, 0x82, 0xb4, 0xc5, 0x3c, 0xe9, 0xac, 0x4b, 0xb7, 0x96, 0xb2,
  0x7f, 0x35, 0x3b, 0x39, 0xbf, 0x2a, 0x45, 0xb7, 0xd9, 0xc2, 0xb2, 0xbe,
  0xd5, 0x3b, 0x51, 0xc9, 0xb4, 0xba, 0xf2, 0x35, 0xc5, 0xb6, 0x8a, 0xbd,
  0x24, 0xc4, 0x26, 0x46, 0xa3, 0x47, 0x09, 0x47, 0xe9, 0xcb, 0x0c, 0x39,
  0xad, 0xc0, 0xe5, 0x30, 0xd4, 0xb9, 0xaf, 0xbd, 0x98, 0xb7, 0x2d, 0x3a,
  0xa7, 0xc4, 0xcf, 0x34, 0x6d, 0xbf, 0x64, 0xd0, 0x47, 0xb2, 0x2e, 0x33,
  0x51, 0xb9, 0xe6, 0x32, 0x83, 0x39, 0x0a, 0x37, 0xdd, 0x40, 0xd8, 0xb5,
  0x33, 0x32, 0xd2, 0x3e, 0x50, 0x2d, 0x1f, 0xbc, 0x0d, 0xb8, 0x90, 0x33,
  0xa6, 0x35, 0xcf, 0xb4, 0x25, 0x40, 0x17, 0xad, 0x38, 0xb9, 0x01, 0x3c,
  0xbd, 0x38, 0x3b, 0x37, 0xb0, 0xbd, 0xe8, 0x34, 0x1c, 0xc8, 0x3b, 0x35,
  0x6d, 0xbd, 0x73, 0x2e, 0x25, 0xc2, 0xa7, 0xbc, 0x5d, 0xc6, 0x0b, 0xb8,
  0x0f, 0x35, 0x26, 0x34, 0xc7, 0xbe, 0x1b, 0xb9, 0x89, 0xc1, 0x6a, 0xbc,
  0xf4, 0xbd, 0x8c, 0xb0, 0x36, 0x39, 0x70, 0xa7, 0x5a, 0xbe, 0x36, 0xae,
  0x6e, 0xc4, 0x92, 0xc4, 0x6d, 0x35, 0x98, 0xcc, 0xad, 0xaf, 0x8d, 0xc3,
  0x22, 0xab, 0xc9, 0xc7, 0x84, 0xb2, 0x07, 0x39, 0xc8, 0x2d, 0x60, 0xbc,
  0x7a, 0xbe, 0x32, 0x39, 0x36, 0xba, 0xfa, 0x35, 0xb7, 0xc2, 0xb8, 0xac,
  0x74, 0xbb, 0xf2, 0xc3, 0xdf, 0x34, 0xbc, 0xa6, 0x00, 0x35, 0x97, 0xb4,
  0xa8, 0xc0, 0x00, 0xc5, 0x3f, 0xbc, 0xf7, 0xb5, 0x00, 0xb7, 0x03, 0x38,
  0x04, 0x38, 0x12, 0xcb, 0x84, 0x38, 0xa7, 0xc2, 0xf9, 0xad, 0x7e, 0xc1,
  0x88, 0xb8, 0x93, 0x42, 0x46, 0xb3, 0x42, 0xc4, 0xa1, 0x3e, 0xde, 0xb4,
  0xe9, 0xba, 0x4f, 0xc2, 0x29, 0xb6, 0xfe, 0xb6, 0x35, 0x43, 0xc5, 0xc5,
  0x7d, 0xb4, 0x5e, 0xc5, 0x95, 0xb6, 0x30, 0x33, 0xeb, 0xc8, 0x09, 0x42,
  0xb2, 0x33, 0x5c, 0x19, 0xa9, 0x32, 0xd3, 0xb1, 0x04, 0xb6, 0xf4, 0x3e,
  0x28, 0xb7, 0xff, 0xc0, 0xa5, 0xbf, 0x7f, 0xb3, 0xf2, 0xc2, 0xa3, 0x3a,
  0x5c, 0xa9, 0xc2, 0xa7, 0x29, 0xbc, 0xd3, 0x42, 0x01, 0xb8, 0xa1, 0xc4,
  0x1e, 0x40, 0x6d, 0xb5, 0xda, 0x24, 0x76, 0xc4, 0xa9, 0xb7, 0x86, 0x36,
  0x03, 0x3f, 0x48, 0xc4, 0x5a, 0xb9, 0x42, 0x40, 0xbe, 0xa9, 0x88, 0xc8,
  0x8d, 0xc3, 0x18, 0xb6, 0x20, 0xb8, 0xac, 0x42, 0x78, 0xb9, 0x66, 0x37,
  0xa5, 0xb4, 0x6b, 0xae, 0x6c, 0xbd, 0xb4, 0xbd, 0x52, 0x3c, 0x9c, 0xc0,
  0xdb, 0x30, 0x78, 0xb4, 0xf3, 0xc2, 0x4d, 0xbd, 0xac, 0x2d, 0x02, 0xbc,
  0x0e, 0x37, 0x71, 0xb3, 0x1d, 0xbc, 0x6a, 0x2c, 0x9e, 0x32, 0xde, 0x3a,
  0xcd, 0xbc, 0x10, 0xc0, 0xae, 0xc4, 0xd6, 0xb0, 0x9a, 0xa9, 0x24, 0x3b,
  0x8a, 0xc5, 0xb3, 0x3c, 0xa6, 0xc4, 0xf8, 0xb8, 0x6b, 0xa6, 0xb7, 0x3b,
  0xf4, 0xc1, 0xd7, 0xc3, 0x5a, 0x38, 0x58, 0xc3, 0x21, 0xc0, 0xb0, 0x3c,
  0x7f, 0x41, 0x9d, 0xb4, 0x39, 0xc7, 0xbd, 0x24, 0xb1, 0xba, 0x1b, 0xc3,
  0xfe, 0xbd, 0xb6, 0xbb, 0x66, 0x3c, 0x15, 0x3a, 0x37, 0xb7, 0x3a, 0xc2,
  0x9c, 0x35, 0x8c, 0x3c, 0x21, 0xb1, 0xd4, 0xb8, 0x1d, 0x3c, 0xc0, 0xb6,
  0xb5, 0xc8, 0xdb, 0xa8, 0xb3, 0xbf, 0x5c, 0xbf, 0x86, 0xbd, 0x5d, 0x39,
  0x62, 0xbe, 0x77, 0x2e, 0x5c, 0xc8, 0xc4, 0x3d, 0x12, 0xbd, 0xc7, 0xc2,
  0x72, 0xb9, 0x3c, 0xaa, 0x44, 0x3b, 0xa5, 0x38, 0x4c, 0xbc, 0xf3, 0x30,
  0xb9, 0x3f, 0x79, 0xab, 0xa6, 0xc1, 0x26, 0xbc, 0xfe, 0x38, 0x89, 0xc6,
  0xb6, 0x39, 0xf8, 0xbd, 0x2a, 0xc1, 0xc9, 0xa4, 0x73, 0x35, 0x25, 0xb2,
  0xe9, 0xc8, 0x66, 0x32, 0xa7, 0xc0, 0x20, 0xc7, 0xe5, 0xb8, 0x28, 0xb6,
  0x70, 0x3f, 0x0a, 0x3a, 0xdd, 0xb5, 0xe8, 0x38, 0xc3, 0xc3, 0x34, 0xb9,
  0x27, 0xb6, 0xc5, 0xbe, 0x64, 0xc5, 0x27, 0x3e, 0x34, 0xc1, 0x73, 0xc4,
  0xe5, 0x2a, 0xd5, 0x3b, 0xb9, 0xbc, 0x59, 0x2d, 0x38, 0x2d, 0xf4, 0xc7,
  0x43, 0x46, 0x47, 0xbe, 0x68, 0x3b, 0xd5, 0xbe, 0x0d, 0x44, 0x89, 0x3a,
  0x8b, 0x44, 0x8c, 0xc5, 0xd3, 0x3a, 0x5d, 0xb7, 0xe1, 0x3a, 0xe1, 0x39,
  0xd4, 0xb3, 0x9f, 0x49, 0xdb, 0x33, 0x14, 0x34, 0x1e, 0xb9, 0x36, 0x3f,
  0x54, 0x3d, 0xb3, 0xb7, 0x15, 0xaf, 0xf1, 0xae, 0x3e, 0x33, 0x8a, 0xc4,
  0x71, 0x31, 0xc8, 0xae, 0x56, 0xc1, 0x7f, 0xbb, 0x38, 0x30, 0xbf, 0x35,
  0x2c, 0xb7, 0x1d, 0xb7, 0xb8, 0xb8, 0x96, 0xba, 0x08, 0xba, 0xb3, 0xc5,
  0xaa, 0xb5, 0x8b, 0x38, 0x96, 0x38, 0x3d, 0xc3, 0x4f, 0xc1, 0x5a, 0x3a,
  0x5b, 0x3e, 0xe0, 0xba, 0x46, 0xc6, 0xed, 0xc7, 0x61, 0xc1, 0x1a, 0xb8,
  0xc8, 0xc0, 0x39, 0x39, 0x4e, 0xc0, 0x6d, 0x3e, 0x25, 0x44, 0x59, 0xbd,
  0xdc, 0x39, 0xbf, 0xc2, 0x8e, 0x3c, 0x71, 0xbc, 0x2d, 0xb8, 0x6b, 0xc3,
  0x62, 0xbd, 0xef, 0xbc, 0x4c, 0x43, 0xe7, 0xbc, 0xf3, 0xb1, 0xdc, 0xbf,
  0x7a, 0xbf, 0x20, 0x3d, 0x54, 0xbf, 0x25, 0x3b, 0x28, 0xc4, 0x93, 0xb9,
  0xa3, 0xb9, 0x2c, 0xc2, 0x70, 0x48, 0x7a, 0xbc, 0x0e, 0x35, 0x24, 0x3c,
  0xb2, 0xb0, 0x3d, 0xb8, 0x9a, 0x39, 0x75, 0x36, 0x63, 0x29, 0x3b, 0x40,
  0x50, 0x2d, 0x36, 0xc0, 0xa7, 0xb9, 0x62, 0xba, 0x4a, 0x41, 0x92, 0x45,
  0x1c, 0x38, 0x28, 0x42, 0x7c, 0x3f, 0x04, 0xc3, 0x68, 0xc2, 0x7c, 0xcd,
  0xea, 0xb2, 0x91, 0x45, 0x9f, 0x3b, 0x7c, 0xad, 0xd8, 0xbd, 0x14, 0xcc,
  0xbf, 0x3c, 0xbe, 0x32, 0xc5, 0xc9, 0x0a, 0x3e, 0xe3, 0xba, 0xf3, 0x3f,
  0x71, 0xbd, 0x55, 0x33, 0x3d, 0x43, 0x9c, 0x3e, 0x83, 0xc2, 0x72, 0xb1,
  0x50, 0xc4, 0x50, 0x2f, 0xbf, 0xb3, 0x0f, 0x35, 0x8a, 0xc4, 0x62, 0x3f,
  0x84, 0x41, 0x6e, 0xc1, 0xd5, 0x3a, 0xf9, 0x2c, 0x60, 0x3b, 0xa1, 0x35,
  0x99, 0x40, 0xd7, 0xc0, 0xb9, 0x48, 0x69, 0x4c, 0x1e, 0x44, 0x73, 0xb4,
  0x42, 0xc8, 0xf2, 0x39, 0xcc, 0x40, 0x5e, 0xc1, 0x52, 0x3f, 0x21, 0x40,
  0x89, 0xb7, 0xf6, 0xbd, 0xa8, 0x3c, 0x05, 0x4c, 0x28, 0x33, 0x64, 0xb5,
  0xec, 0xc6, 0x6c, 0x40, 0x62, 0xbc, 0xd9, 0xbc, 0x14, 0x30, 0x77, 0xb0,
  0xb4, 0x32, 0x62, 0x3e, 0xea, 0xb4, 0x22, 0x41, 0xca, 0xc2, 0x7a, 0x38,
  0x49, 0xb8, 0xd5, 0x2f, 0x4a, 0x31, 0x35, 0x40, 0x3c, 0x35, 0x6e, 0x36,
  0x66, 0x35, 0xbb, 0xc3, 0x51, 0xc3, 0x80, 0x3c, 0xb4, 0x42, 0x35, 0x3c,
  0x09, 0xc6, 0x51, 0xb4, 0xd9, 0x3c, 0xec, 0x37, 0x55, 0xbf, 0x1f, 0xb8,
  0x3f, 0x45, 0x33, 0xad, 0xe4, 0xc3, 0x18, 0x3a, 0x2d, 0x3c, 0x99, 0x3c,
  0x9e, 0x38, 0xa2, 0x39, 0x34, 0x32, 0x41, 0xc6, 0xe3, 0xc1, 0xf5, 0xb6,
  0x07, 0x3c, 0xc4, 0x34, 0x52, 0xb0, 0x43, 0x46, 0x15, 0x3d, 0x49, 0xc1,
  0x80, 0x38, 0x9e, 0x43, 0xee, 0xb7, 0xbb, 0xb9, 0xcd, 0xb3, 0x5a, 0x39,
  0x29, 0xbc, 0x6d, 0xa6, 0x23, 0xb3, 0x6e, 0xc1, 0x66, 0x4a, 0xcd, 0xa0,
  0x4d, 0x34, 0xb0, 0x47, 0x51, 0xb4, 0xc0, 0x34, 0x59, 0x3f, 0xbd, 0xab,
  0xf4, 0xb5, 0xba, 0xbf, 0x24, 0x3b, 0xdc, 0x35, 0x30, 0x33, 0xbb, 0xa4,
  0x48, 0x2e, 0xa4, 0x46, 0x03, 0xb9, 0x2c, 0x40, 0xa8, 0xac, 0x04, 0x3a,
  0xf5, 0xaa, 0xed, 0x3c, 0x4e, 0x43, 0xb9, 0x40, 0xb9, 0xc5, 0x46, 0xba,
  0xe4, 0xbc, 0x6f, 0xc3, 0xaf, 0xa9, 0x34, 0xc0, 0x67, 0x4d, 0x41, 0x3c,
  0x9b, 0xc3, 0xa1, 0xbd, 0x13, 0x3a, 0xa2, 0xbb, 0xba, 0xb9, 0xc3, 0xbe,
  0x44, 0x3e, 0x54, 0x29, 0x87, 0xc5, 0xe9, 0xb2, 0x7e, 0x39, 0x4a, 0x34,
  0x06, 0xc9, 0x65, 0xb6, 0x71, 0x43, 0x00, 0x3e, 0x61, 0x3c, 0xf7, 0xb6,
  0x88, 0x35, 0x24, 0xbb, 0x76, 0xc0, 0xfe, 0xcb, 0x8b, 0xc0, 0x7e, 0x3f,
  0xd0, 0xc4, 0x28, 0xad, 0x62, 0xc1, 0xe2, 0xb6, 0xd1, 0xa0, 0x2d, 0x3f,
  0x27, 0xbb, 0x38, 0x3b, 0xd2, 0xb9, 0x34, 0x44, 0x19, 0xba, 0x5f, 0x42,
  0x97, 0xbc, 0x87, 0xb5, 0x1e, 0x2a, 0xa2, 0xc1, 0x63, 0x31, 0x16, 0xc1,
  0x94, 0x3f, 0xf1, 0x31, 0x10, 0xb9, 0xbb, 0xc7, 0xf7, 0x37, 0xca, 0xb1,
  0x14, 0x32, 0x1b, 0x9f, 0x92, 0xb8, 0x3b, 0xbc, 0x65, 0x3d, 0x6d, 0xb4,
  0x82, 0xba, 0xa0, 0xbe, 0xe8, 0x39, 0x77, 0x38, 0x0d, 0xb1, 0xa7, 0xbf,
  0xfb, 0x3e, 0x4d, 0xc5, 0xe3, 0xc8, 0x59, 0xb4, 0x49, 0xb9, 0x53, 0xbb,
  0x34, 0x3d, 0x1d, 0xbd, 0xe0, 0x3a, 0x8c, 0xbc, 0x66, 0xb1, 0xef, 0xb0,
  0xeb, 0xc4, 0x54, 0xc0, 0x86, 0xb5, 0x5d, 0xbd, 0x47, 0xba, 0xb0, 0xb9,
  0xcb, 0xbc, 0x38, 0x34, 0x5b, 0xbf, 0xd5, 0x40, 0xb3, 0x32, 0xf1, 0xbf,
  0xb8, 0xbf, 0xfb, 0x39, 0xa6, 0xb9, 0x6a, 0x42, 0xfa, 0xb7, 0xf7, 0xb8,
  0x39, 0x40, 0x40, 0x33, 0xd0, 0x42, 0xdc, 0x34, 0xae, 0x3c, 0x1f, 0x3b,
  0x19, 0x48, 0x01, 0xb5, 0x2c, 0xbb, 0x60, 0x45, 0x6f, 0xbe, 0x48, 0xb8,
  0x1d, 0xc1, 0x99, 0xc0, 0x10, 0xb5, 0x46, 0xbc, 0xdf, 0xbc, 0x4a, 0xc0,
  0x18, 0xc3, 0x42, 0xb9, 0x66, 0xba, 0x50, 0xc5, 0xaf, 0xc2, 0x9b, 0x46,
  0x54, 0xc6, 0x5a, 0xb1, 0x28, 0xc1, 0xc1, 0xc6, 0x5c, 0x3a, 0xe8, 0x3e,
  0x5f, 0x34, 0xac, 0xad, 0x50, 0xb1, 0xad, 0x45, 0xef, 0x36, 0x28, 0xb1,
  0x4e, 0xcd, 0xf8, 0x36, 0x4d, 0xb1, 0x65, 0x37, 0xec, 0xb7, 0xfa, 0xb4,
  0x96, 0xbd, 0x37, 0xc0, 0x0a, 0xc0, 0xf1, 0xb7, 0xbb, 0x38, 0xc5, 0x38,
  0x3a, 0x19, 0x8e, 0x3c, 0x4f, 0xbe, 0x7d, 0x3f, 0x02, 0xb9, 0x6e, 0x2c,
  0x5d, 0x33, 0x57, 0x38, 0x33, 0xbc, 0xd2, 0x2d, 0x2d, 0x3d, 0x58, 0xc6,
  0xf0, 0x44, 0x17, 0xc0, 0x5d, 0x3c, 0xcb, 0x39, 0x54, 0x45, 0x47, 0xbc,
  0xfe, 0xb9, 0xa1, 0xc5, 0xf8, 0x3b, 0x42, 0x35, 0x24, 0x44, 0x55, 0xc5,
  0xd7, 0xc4, 0xe9, 0xca, 0x46, 0x34, 0x16, 0xb3, 0x69, 0x3e, 0xd0, 0xc4,
  0x20, 0x1f, 0xd8, 0x36, 0x89, 0x38, 0x30, 0x3c, 0x94, 0x3a, 0xfb, 0x45,
  0x21, 0xad, 0x37, 0xc6, 0x73, 0x35, 0x67, 0x34, 0x90, 0x3c, 0xb8, 0x35,
  0x3c, 0xb9, 0x2b, 0xbd, 0x31, 0x3c, 0xab, 0xbd, 0xe1, 0xb9, 0x34, 0x28,
  0x47, 0x40, 0x12, 0x33, 0xde, 0x3d, 0x20, 0xb1, 0x0d, 0xc2, 0xd6, 0xc0,
  0x57, 0xba, 0xd5, 0x31, 0x2a, 0xc0, 0x0f, 0x39, 0xb2, 0x40, 0x08, 0x37,
  0x15, 0x35, 0x14, 0x38, 0xdf, 0xc0, 0xa9, 0xb9, 0xab, 0xbe, 0xd9, 0x3e,
  0x96, 0xbb, 0xb1, 0x43, 0x89, 0xba, 0x45, 0xaf, 0x5a, 0x40, 0xd8, 0xc4,
  0xfe, 0xb5, 0x5b, 0x4a, 0x0d, 0xb5, 0x28, 0xb5, 0xff, 0x3a, 0x79, 0xc2,
  0x14, 0x39, 0x9d, 0xbe, 0xed, 0x39, 0x56, 0x3a, 0xf5, 0xbe, 0x95, 0x38,
  0x88, 0xb3, 0xf1, 0x3d, 0xa6, 0xc9, 0x29, 0x9f, 0x82, 0xc0, 0xc6, 0xc5,
  0xef, 0xb9, 0x82, 0x34, 0x7b, 0xbb, 0xaf, 0x35, 0xdf, 0x99, 0xb6, 0xc5,
  0xc6, 0xad, 0x45, 0xb9, 0xf8, 0x39, 0xca, 0x38, 0x9c, 0xbc, 0xb2, 0xb4,
  0x4d, 0x22, 0x07, 0x30, 0xce, 0xb7, 0xd0, 0x3b, 0x9e, 0x3f, 0x09, 0x47,
  0x8f, 0xb9, 0x1f, 0xb3, 0x29, 0x38, 0xdd, 0x38, 0xb8, 0x3c, 0x0b, 0xc4,
  0x8e, 0x32, 0x4b, 0x39, 0x8a, 0x45, 0xea, 0xad, 0x86, 0x3f, 0xc2, 0xbd,
  0xee, 0xbc, 0x25, 0xbc, 0x87, 0xc3, 0x0e, 0xc7, 0x0d, 0xc0, 0x93, 0x35,
  0x81, 0x3d, 0xaf, 0x32, 0x2c, 0xb6, 0x67, 0xb8, 0x30, 0x2d, 0xcf, 0x38,
  0x3b, 0x3e, 0x06, 0xc4, 0x39, 0xb2, 0x09, 0xb7, 0xfd, 0x34, 0x73, 0xc0,
  0x22, 0xba, 0xba, 0x40, 0x08, 0x44, 0x64, 0xc7, 0x6a, 0xc1, 0x1d, 0xb3,
  0xb4, 0x3c, 0x1e, 0xb9, 0x54, 0xbf, 0x59, 0xb7, 0x01, 0xb6, 0xf4, 0xc2,
  0x63, 0xbf, 0xdb, 0x47, 0x69, 0xc6, 0xf6, 0x45, 0x92, 0xab, 0xdf, 0x30,
  0x42, 0xb7, 0x2a, 0xc3, 0x3c, 0xba, 0xae, 0x3a, 0x94, 0x2f, 0xca, 0x36,
  0x03, 0xc3, 0x2f, 0xc3, 0xbb, 0xb8, 0x38, 0x3d, 0x94, 0x29, 0xd4, 0xb6,
  0x58, 0x3d, 0x73, 0xab, 0xed, 0xbb, 0x74, 0xb3, 0x02, 0x38, 0xd6, 0x35,
  0xc5, 0xbd, 0x02, 0x3b, 0x85, 0x31, 0xd2, 0x41, 0x00, 0x35, 0xb5, 0x41,
  0xc7, 0xbd, 0x10, 0xbe, 0xf4, 0x40, 0x4e, 0x3e, 0x11, 0xc0, 0x42, 0x34,
  0x8f, 0x41, 0xb2, 0x20, 0x95, 0xb8, 0x5b, 0xc1, 0xf5, 0x3c, 0xc1, 0xbe,
  0x20, 0xc3, 0xc4, 0x3c, 0x04, 0xb0, 0x9d, 0x42, 0x49, 0xbb, 0x13, 0xb7,
  0xb8, 0xc1, 0xb4, 0xb2, 0xc9, 0x39, 0x3a, 0xa9, 0x38, 0xc8, 0xc0, 0xc3,
  0x06, 0xb9, 0x96, 0xc0, 0xa1, 0xb8, 0x06, 0xb8, 0x81, 0x3d, 0x0b, 0x44,
  0xbb, 0xbe, 0x26, 0xb8, 0x37, 0x3c, 0x64, 0x38, 0x92, 0xc9, 0xf3, 0x35,
  0xe6, 0x3f, 0x00, 0x4c, 0x94, 0x3c, 0x8c, 0xba, 0xae, 0x3b, 0xf0, 0x32,
  0x67, 0x42, 0xfa, 0xc4, 0xc0, 0xb9, 0xb4, 0xa0, 0xf5, 0xb7, 0x90, 0xba,
  0x48, 0xbb, 0x1d, 0xbc, 0xe2, 0x36, 0xd8, 0xba, 0x1e, 0xc2, 0xc4, 0xb9,
  0x9d, 0x40, 0x8f, 0xc3, 0xfe, 0xb6, 0x86, 0xc1, 0x77, 0x35, 0x59, 0xb8,
  0xaf, 0xb7, 0x25, 0x36, 0x55, 0xb5, 0x8d, 0x29, 0x4e, 0xcc, 0x79, 0xb5,
  0xde, 0xb8, 0x88, 0xc2, 0xdb, 0x3f, 0x03, 0xc0, 0x3c, 0xc1, 0x28, 0xbc,
  0x90, 0x3a, 0xf6, 0xb4, 0x8c, 0x45, 0xba, 0x38, 0xa9, 0xb4, 0x46, 0x39,
  0xd2, 0x42, 0x72, 0xbc, 0xb4, 0xb8, 0x43, 0xc3, 0x21, 0xc1, 0x3d, 0xb5,
  0x09, 0xb8, 0x25, 0xc1, 0x17, 0xbd, 0x53, 0xc3, 0x62, 0xc6, 0x7b, 0x42,
  0xfb, 0xb7, 0x85, 0xb5, 0x0a, 0xc3, 0xf0, 0x9e, 0x53, 0xbf, 0xcb, 0x40,
  0x0d, 0xca, 0x38, 0x3e, 0xd3, 0xc0, 0x6c, 0x28, 0xe8, 0x3d, 0x0f, 0xc9,
  0xa7, 0x37, 0x79, 0xb1, 0xbb, 0x33, 0x0f, 0x3c, 0xbc, 0xaf, 0x31, 0xc4,
  0xc6, 0xb2, 0x0e, 0x2d, 0x51, 0x31, 0x09, 0xba, 0x7f, 0x33, 0x24, 0x3b,
  0x1f, 0x37, 0x87, 0xbf, 0x69, 0x2a, 0xd4, 0x34, 0x27, 0x2b, 0x17, 0x3c,
  0x18, 0xbd, 0x79, 0xbc, 0xac, 0x32, 0x25, 0x35, 0x54, 0xb7, 0xf1, 0xb3,
  0x8a, 0xbc, 0x74, 0xb9, 0x9e, 0x3d, 0x17, 0xa9, 0x25, 0xbd, 0x69, 0xc2,
  0x9a, 0xc6, 0x7a, 0x39, 0x78, 0xc6, 0xb8, 0x2f, 0x54, 0x31, 0x39, 0xbd,
  0x46, 0xc4, 0x15, 0xbd, 0xa2, 0x3d, 0x56, 0x3e, 0xc1, 0xb4, 0x40, 0xbe,
  0x46, 0x43, 0x48, 0xae, 0xbf, 0xc4, 0x7b, 0xc5, 0xdc, 0x29, 0x9c, 0x40,
  0xcb, 0xc0, 0x87, 0xbc, 0x07, 0xb8, 0xff, 0x43, 0x48, 0x36, 0x20, 0xbc,
  0xdd, 0x3d, 0xa0, 0xb5, 0xc8, 0x3a, 0xc6, 0xb8, 0x71, 0x3d, 0x6e, 0xbc,
  0xf3, 0x42, 0xeb, 0xb2, 0x9a, 0x31, 0xa0, 0x38, 0x1d, 0x3c, 0xc7, 0xa3,
  0x8a, 0xb5, 0xea, 0xb4, 0xc7, 0x3b, 0x43, 0xbd, 0x04, 0xb7, 0x03, 0xba,
  0x5d, 0x2f, 0x3d, 0xb8, 0x4b, 0x37, 0xa1, 0xb8, 0xf6, 0xb9, 0x20, 0xbf,
  0xdd, 0xc5, 0x52, 0x34, 0xc3, 0xbd, 0x43, 0x44, 0x19, 0xb5, 0x38, 0xbf,
  0x3d, 0xbe, 0xb1, 0x2e, 0x3d, 0xbe, 0x1a, 0xc4, 0x88, 0x2a, 0xc8, 0xb4,
  0x32, 0x48, 0x1c, 0x3f, 0xb0, 0x3b, 0xf4, 0xc9, 0xa0, 0xbd, 0x2f, 0xb9,
  0x00, 0x45, 0xe3, 0xbe, 0x81, 0xb7, 0xf9, 0xb1, 0xae, 0x40, 0x38, 0x29,
  0xb5, 0xbb, 0x07, 0x3d, 0xae, 0x40, 0x01, 0xb9, 0xbe, 0xc4, 0x62, 0xcb,
  0x2b, 0xc4, 0x81, 0x36, 0x6d, 0xbb, 0x68, 0xbe, 0xdc, 0x3c, 0xe6, 0x3f,
  0xd8, 0x30, 0x1b, 0x44, 0xef, 0xcc, 0x4d, 0x37, 0xba, 0xbc, 0xc3, 0xb6,
  0xb0, 0xba, 0x3f, 0x3d, 0xfb, 0x3c, 0x60, 0x3c, 0xd2, 0xc2, 0xc2, 0xcb,
  0x70, 0xbb, 0x5c, 0xc4, 0x2c, 0xbf, 0x01, 0x3a, 0x34, 0x3d, 0xf5, 0xc1,
  0xea, 0x3c, 0x25, 0xbf, 0xaa, 0xad, 0x3e, 0x31, 0xfc, 0x38, 0x33, 0xb9,
  0xb4, 0x3c, 0xd3, 0xc4, 0x43, 0x39, 0xe7, 0xba, 0x3c, 0xc8, 0x3d, 0xb6,
  0x80, 0x35, 0x9e, 0xae, 0x22, 0xae, 0x48, 0xa6, 0x56, 0xb8, 0xc3, 0x9d,
  0x10, 0xbc, 0x40, 0xc5, 0xae, 0x3d, 0x6c, 0xc7, 0x3a, 0xc4, 0x89, 0xbe,
  0x3b, 0xbe, 0x8a, 0x40, 0xbf, 0xb8, 0x06, 0xb3, 0x18, 0xba, 0xb0, 0xbc,
  0xc6, 0xbb, 0x02, 0x38, 0xbd, 0xbd, 0x31, 0xbe, 0x30, 0xc4, 0xd4, 0xbf,
  0x15, 0x35, 0xb7, 0xb5, 0x87, 0x35, 0x72, 0x36, 0x8d, 0xb5, 0x64, 0xbf,
  0x1f, 0x38, 0xc8, 0xca, 0xa0, 0x3b, 0x2e, 0xc6, 0x6f, 0xb0, 0x51, 0xc1,
  0xc0, 0x33, 0x98, 0xb8, 0x47, 0xbd, 0x42, 0xbd, 0xcf, 0xbd, 0x04, 0x30,
  0x92, 0x34, 0x91, 0xab, 0xfb, 0xc9, 0xe3, 0x1f, 0x9f, 0xbe, 0x22, 0x44,
  0x2f, 0xc1, 0x25, 0x38, 0x6c, 0x39, 0x11, 0xb2, 0x48, 0x40, 0x5c, 0x33,
  0x00, 0xba, 0x1b, 0xb7, 0xf2, 0xc1, 0x78, 0x3c, 0x7c, 0xc4, 0x10, 0xcc,
  0xef, 0xb9, 0x0f, 0x41, 0xca, 0xc6, 0x42, 0x34, 0x4a, 0xb7, 0xdc, 0xc5,
  0x7e, 0xb8, 0xa4, 0xc0, 0xec, 0xb8, 0x37, 0x3c, 0x3d, 0xb4, 0xee, 0xc5,
  0xe9, 0xba, 0x44, 0x3c, 0x58, 0xd0, 0x2c, 0xc0, 0x11, 0xac, 0x59, 0x44,
  0x91, 0x3a, 0x5c, 0x2f, 0x73, 0xbf, 0x6f, 0xc5, 0xea, 0xc2, 0x4c, 0x34,
  0xd1, 0x3c, 0x3e, 0xbc, 0x45, 0xb6, 0xf9, 0x3c, 0x05, 0xb6, 0x5a, 0x42,
  0xc1, 0xb2, 0x04, 0x41, 0xec, 0x3b, 0x4b, 0x37, 0x77, 0xb3, 0x6a, 0x30,
  0x54, 0xba, 0xfe, 0x46, 0xc7, 0x4a, 0x58, 0x3c, 0x19, 0x3f, 0x98, 0xb9,
  0xa5, 0xbe, 0x19, 0xb8, 0x40, 0x2a, 0x08, 0xc4, 0x4f, 0xaf, 0xf8, 0xb5,
  0x1b, 0xbd, 0x5b, 0xba, 0xd3, 0xbe, 0x55, 0x49, 0x12, 0x3a, 0xa8, 0x34,
  0x18, 0xbf, 0x0a, 0xc1, 0xbf, 0xba, 0xb1, 0x31, 0xf9, 0xc0, 0x77, 0xb4,
  0x1d, 0xbc, 0xbd, 0x3f, 0x76, 0xb5, 0x34, 0x3c, 0xab, 0xc0, 0x68, 0xc1,
  0x3f, 0xb4, 0x9b, 0x38, 0x89, 0xbf, 0x99, 0x3b, 0xca, 0xab, 0xdb, 0x36,
  0x42, 0xbb, 0x97, 0xbe, 0x2a, 0xbf, 0x80, 0xb6, 0x42, 0x3f, 0xe2, 0xb0,
  0xe8, 0x32, 0x7c, 0x2a, 0x55, 0xbe, 0x2b, 0x3d, 0x52, 0xc0, 0x4d, 0xb2,
  0x12, 0xc2, 0x01, 0xba, 0xad, 0xc0, 0xbd, 0xbe, 0xf0, 0x3a, 0xad, 0x3a,
  0xc6, 0x32, 0x98, 0x41, 0xc3, 0x3d, 0xd9, 0x3c, 0x7d, 0xbe, 0x46, 0xba,
  0xd3, 0xb2, 0x68, 0xc7, 0x00, 0xae, 0x14, 0xb7, 0xad, 0x3e, 0xfc, 0x29,
  0x12, 0xb8, 0x74, 0xc9, 0x4f, 0xb7, 0x59, 0x28, 0x5a, 0xbc, 0xa6, 0xbd,
  0xae, 0x33, 0x31, 0xb6, 0xcd, 0xbc, 0x6f, 0xbc, 0x66, 0xb4, 0x7b, 0xba,
  0x1e, 0xb4, 0xd6, 0xc5, 0x93, 0xbb, 0xcd, 0xbc, 0x27, 0xbf, 0x31, 0xb1,
  0xf9, 0x3b, 0x31, 0x42, 0xac, 0x3a, 0xf1, 0xa1, 0x92, 0x3d, 0xb8, 0xb9,
  0xce, 0x38, 0x71, 0x42, 0x5d, 0x35, 0x6c, 0xb8, 0xee, 0xbf, 0x0a, 0x40,
  0xf2, 0x3d, 0x84, 0x43, 0x03, 0x3a, 0x68, 0xb8, 0x89, 0x38, 0xca, 0x2f,
  0xbf, 0x3f, 0x65, 0xc8, 0x6f, 0x3b, 0xf0, 0x30, 0x3e, 0xc4, 0x25, 0xb9,
  0x21, 0xc1, 0x47, 0xc4, 0xbe, 0x39, 0xfc, 0x38, 0xdc, 0xbc, 0x8b, 0x3c,
  0x03, 0xb9, 0x4b, 0xad, 0x6c, 0xba, 0x55, 0xb7, 0xfc, 0x31, 0xcd, 0xbd,
  0x10, 0x41, 0xbd, 0xbc, 0x32, 0xb6, 0x75, 0x40, 0xcc, 0xba, 0xb1, 0xb6,
  0x65, 0x39, 0x44, 0xbb, 0xfe, 0xb6, 0x07, 0x48, 0xfa, 0xc5, 0xb1, 0xca,
  0x2d, 0xb8, 0x7c, 0xa8, 0xdc, 0x37, 0x6d, 0xbc, 0xf6, 0xbf, 0x04, 0x42,
  0x11, 0x37, 0x79, 0xc0, 0xfd, 0x3b, 0xc4, 0xc8, 0x48, 0x30, 0x7a, 0xcd,
  0xcd, 0xbe, 0x8b, 0x35, 0xe4, 0x2e, 0x5c, 0xbe, 0xa4, 0xbd, 0xbe, 0xbd,
  0xe6, 0xb6, 0x8d, 0xb9, 0x52, 0x3a, 0x58, 0xbc, 0x23, 0xb5, 0x55, 0x30,
  0xaa, 0x2d, 0x1d, 0x35, 0x56, 0xc8, 0x88, 0xb7, 0x25, 0xab, 0x59, 0xb4,
  0x6e, 0x37, 0x10, 0xba, 0xb3, 0xb9, 0xa2, 0x36, 0x03, 0x35, 0x81, 0xbc,
  0xa5, 0xbb, 0xf8, 0xc1, 0xa7, 0xc2, 0x0c, 0xbd, 0x4a, 0xb8, 0x05, 0x3a,
  0x3d, 0xbe, 0xfc, 0xbf, 0x67, 0xb8, 0x9a, 0xbd, 0xbb, 0x3c, 0x7d, 0xb3,
  0xd2, 0xc8, 0xf1, 0xc3, 0x46, 0xbc, 0xf9, 0xb2, 0x84, 0x38, 0xca, 0x2f,
